{
  "version": "1.0",
  "truncation": null,
  "padding": null,
  "added_tokens": [
    {
      "id": 0,
      "content": "<unk>",
      "single_word": false,
      "lstrip": false,
      "rstrip": false,
      "normalized": false,
      "special": true
    },
    {
      "id": 1,
      "content": "<s>",
      "single_word": false,
      "lstrip": false,
      "rstrip": false,
      "normalized": false,
      "special": true
    },
    {
      "id": 2,
      "content": "</s>",
      "single_word": false,
      "lstrip": false,
      "rstrip": false,
      "normalized": false,
      "special": true
    }
  ],
  "normalizer": {
    "type": "Sequence",
    "normalizers": [
      {
        "type": "Prepend",
        "prepend": "▁"
      },
      {
        "type": "Replace",
        "pattern": {
          "String": " "
        },
        "content": "▁"
      }
    ]
  },
  "pre_tokenizer": null,
  "post_processor": {
    "type": "TemplateProcessing",
    "single": [
      {
        "Sequence": {
          "id": "A",
          "type_id": 0
        }
      }
    ],
    "pair": [
      {
        "Sequence": {
          "id": "A",
          "type_id": 0
        }
      },
      {
        "Sequence": {
          "id": "B",
          "type_id": 1
        }
      }
    ],
    "special_tokens": {}
  },
  "decoder": {
    "type": "Sequence",
    "decoders": [
      {
        "type": "Replace",
        "pattern": {
          "String": "▁"
        },
        "content": " "
      },
      {
        "type": "ByteFallback"
      },
      {
        "type": "Fuse"
      },
      {
        "type": "Strip",
        "content": " ",
        "start": 1,
        "stop": 0
      }
    ]
  },
  "model": {
    "type": "BPE",
    "dropout": null,
    "unk_token": "<unk>",
    "continuing_subword_prefix": null,
    "end_of_word_suffix": null,
    "fuse_unk": true,
    "byte_fallback": true,
    "vocab": {
      "<unk>": 0,
      "<s>": 1,
      "</s>": 2,
      "<0x00>": 3,
      "<0x01>": 4,
      "<0x02>": 5,
      "<0x03>": 6,
      "<0x04>": 7,
      "<0x05>": 8,
      "<0x06>": 9,
      "<0x07>": 10,
      "<0x08>": 11,
      "<0x09>": 12,
      "<0x0A>": 13,
      "<0x0B>": 14,
      "<0x0C>": 15,
      "<0x0D>": 16,
      "<0x0E>": 17,
      "<0x0F>": 18,
      "<0x10>": 19,
      "<0x11>": 20,
      "<0x12>": 21,
      "<0x13>": 22,
      "<0x14>": 23,
      "<0x15>": 24,
      "<0x16>": 25,
      "<0x17>": 26,
      "<0x18>": 27,
      "<0x19>": 28,
      "<0x1A>": 29,
      "<0x1B>": 30,
      "<0x1C>": 31,
      "<0x1D>": 32,
      "<0x1E>": 33,
      "<0x1F>": 34,
      "<0x20>": 35,
      "<0x21>": 36,
      "<0x22>": 37,
      "<0x23>": 38,
      "<0x24>": 39,
      "<0x25>": 40,
      "<0x26>": 41,
      "<0x27>": 42,
      "<0x28>": 43,
      "<0x29>": 44,
      "<0x2A>": 45,
      "<0x2B>": 46,
      "<0x2C>": 47,
      "<0x2D>": 48,
      "<0x2E>": 49,
      "<0x2F>": 50,
      "<0x30>": 51,
      "<0x31>": 52,
      "<0x32>": 53,
      "<0x33>": 54,
      "<0x34>": 55,
      "<0x35>": 56,
      "<0x36>": 57,
      "<0x37>": 58,
      "<0x38>": 59,
      "<0x39>": 60,
      "<0x3A>": 61,
      "<0x3B>": 62,
      "<0x3C>": 63,
      "<0x3D>": 64,
      "<0x3E>": 65,
      "<0x3F>": 66,
      "<0x40>": 67,
      "<0x41>": 68,
      "<0x42>": 69,
      "<0x43>": 70,
      "<0x44>": 71,
      "<0x45>": 72,
      "<0x46>": 73,
      "<0x47>": 74,
      "<0x48>": 75,
      "<0x49>": 76,
      "<0x4A>": 77,
      "<0x4B>": 78,
      "<0x4C>": 79,
      "<0x4D>": 80,
      "<0x4E>": 81,
      "<0x4F>": 82,
      "<0x50>": 83,
      "<0x51>": 84,
      "<0x52>": 85,
      "<0x53>": 86,
      "<0x54>": 87,
      "<0x55>": 88,
      "<0x56>": 89,
      "<0x57>": 90,
      "<0x58>": 91,
      "<0x59>": 92,
      "<0x5A>": 93,
      "<0x5B>": 94,
      "<0x5C>": 95,
      "<0x5D>": 96,
      "<0x5E>": 97,
      "<0x5F>": 98,
      "<0x60>": 99,
      "<0x61>": 100,
      "<0x62>": 101,
      "<0x63>": 102,
      "<0x64>": 103,
      "<0x65>": 104,
      "<0x66>": 105,
      "<0x67>": 106,
      "<0x68>": 107,
      "<0x69>": 108,
      "<0x6A>": 109,
      "<0x6B>": 110,
      "<0x6C>": 111,
      "<0x6D>": 112,
      "<0x6E>": 113,
      "<0x6F>": 114,
      "<0x70>": 115,
      "<0x71>": 116,
      "<0x72>": 117,
      "<0x73>": 118,
      "<0x74>": 119,
      "<0x75>": 120,
      "<0x76>": 121,
      "<0x77>": 122,
      "<0x78>": 123,
      "<0x79>": 124,
      "<0x7A>": 125,
      "<0x7B>": 126,
      "<0x7C>": 127,
      "<0x7D>": 128,
      "<0x7E>": 129,
      "<0x7F>": 130,
      "<0x80>": 131,
      "<0x81>": 132,
      "<0x82>": 133,
      "<0x83>": 134,
      "<0x84>": 135,
      "<0x85>": 136,
      "<0x86>": 137,
      "<0x87>": 138,
      "<0x88>": 139,
      "<0x89>": 140,
      "<0x8A>": 141,
      "<0x8B>": 142,
      "<0x8C>": 143,
      "<0x8D>": 144,
      "<0x8E>": 145,
      "<0x8F>": 146,
      "<0x90>": 147,
      "<0x91>": 148,
      "<0x92>": 149,
      "<0x93>": 150,
      "<0x94>": 151,
      "<0x95>": 152,
      "<0x96>": 153,
      "<0x97>": 154,
      "<0x98>": 155,
      "<0x99>": 156,
      "<0x9A>": 157,
      "<0x9B>": 158,
      "<0x9C>": 159,
      "<0x9D>": 160,
      "<0x9E>": 161,
      "<0x9F>": 162,
      "<0xA0>": 163,
      "<0xA1>": 164,
      "<0xA2>": 165,
      "<0xA3>": 166,
      "<0xA4>": 167,
      "<0xA5>": 168,
      "<0xA6>": 169,
      "<0xA7>": 170,
      "<0xA8>": 171,
      "<0xA9>": 172,
      "<0xAA>": 173,
      "<0xAB>": 174,
      "<0xAC>": 175,
      "<0xAD>": 176,
      "<0xAE>": 177,
      "<0xAF>": 178,
      "<0xB0>": 179,
      "<0xB1>": 180,
      "<0xB2>": 181,
      "<0xB3>": 182,
      "<0xB4>": 183,
      "<0xB5>": 184,
      "<0xB6>": 185,
      "<0xB7>": 186,
      "<0xB8>": 187,
      "<0xB9>": 188,
      "<0xBA>": 189,
      "<0xBB>": 190,
      "<0xBC>": 191,
      "<0xBD>": 192,
      "<0xBE>": 193,
      "<0xBF>": 194,
      "<0xC0>": 195,
      "<0xC1>": 196,
      "<0xC2>": 197,
      "<0xC3>": 198,
      "<0xC4>": 199,
      "<0xC5>": 200,
      "<0xC6>": 201,
      "<0xC7>": 202,
      "<0xC8>": 203,
      "<0xC9>": 204,
      "<0xCA>": 205,
      "<0xCB>": 206,
      "<0xCC>": 207,
      "<0xCD>": 208,
      "<0xCE>": 209,
      "<0xCF>": 210,
      "<0xD0>": 211,
      "<0xD1>": 212,
      "<0xD2>": 213,
      "<0xD3>": 214,
      "<0xD4>": 215,
      "<0xD5>": 216,
      "<0xD6>": 217,
      "<0xD7>": 218,
      "<0xD8>": 219,
      "<0xD9>": 220,
      "<0xDA>": 221,
      "<0xDB>": 222,
      "<0xDC>": 223,
      "<0xDD>": 224,
      "<0xDE>": 225,
      "<0xDF>": 226,
      "<0xE0>": 227,
      "<0xE1>": 228,
      "<0xE2>": 229,
      "<0xE3>": 230,
      "<0xE4>": 231,
      "<0xE5>": 232,
      "<0xE6>": 233,
      "<0xE7>": 234,
      "<0xE8>": 235,
      "<0xE9>": 236,
      "<0xEA>": 237,
      "<0xEB>": 238,
      "<0xEC>": 239,
      "<0xED>": 240,
      "<0xEE>": 241,
      "<0xEF>": 242,
      "<0xF0>": 243,
      "<0xF1>": 244,
      "<0xF2>": 245,
      "<0xF3>": 246,
      "<0xF4>": 247,
      "<0xF5>": 248,
      "<0xF6>": 249,
      "<0xF7>": 250,
      "<0xF8>": 251,
      "<0xF9>": 252,
      "<0xFA>": 253,
      "<0xFB>": 254,
      "<0xFC>": 255,
      "<0xFD>": 256,
      "<0xFE>": 257,
      "<0xFF>": 258,
      "▁t": 259,
      "▁a": 260,
      "he": 261,
      "in": 262,
      "er": 263,
      "on": 264,
      "re": 265,
      "▁the": 266,
      "at": 267,
      "▁s": 268,
      "▁o": 269,
      "en": 270,
      "▁w": 271,
      "an": 272,
      "or": 273,
      "is": 274,
      "it": 275,
      "es": 276,
      "▁c": 277,
      "ed": 278,
      "al": 279,
      "▁f": 280,
      "nd": 281,
      "ar": 282,
      "▁p": 283,
      "▁b": 284,
      "ing": 285,
      "▁of": 286,
      "ou": 287,
      "▁in": 288,
      "▁m": 289,
      "ic": 290,
      "▁and": 291,
      "▁to": 292,
      "ion": 293,
      "as": 294,
      "▁d": 295,
      "le": 296,
      "▁h": 297,
      "om": 298,
      "ent": 299,
      "▁th": 300,
      "il": 301,
      "▁T": 302,
      "▁S": 303,
      "st": 304,
      "▁re": 305,
      "ro": 306,
      "el": 307,
      "ct": 308,
      "▁A": 309,
      "▁n": 310,
      "▁l": 311,
      "et": 312,
      "▁C": 313,
      "▁I": 314,
      "▁e": 315,
      "id": 316,
      "am": 317,
      "ol": 318,
      "ut": 319,
      "▁g": 320,
      "ad": 321,
      "ot": 322,
      "ur": 323,
      "ve": 324,
      "ce": 325,
      "▁M": 326,
      "im": 327,
      "ation": 328,
      "ly": 329,
      "ig": 330,
      "▁on": 331,
      "▁be": 332,
      "▁for": 333,
      "▁is": 334,
      "ch": 335,
      "ay": 336,
      "us": 337,
      "ver": 338,
      "ow": 339,
      "▁B": 340,
      "▁P": 341,
      "▁that": 342,
      "ir": 343,
      "▁st": 344,
      "▁(": 345,
      "▁The": 346,
      "ter": 347,
      "▁he": 348,
      "ith": 349,
      "▁H": 350,
      "ul": 351,
      "un": 352,
      "se": 353,
      "▁y": 354,
      "▁as": 355,
      "ra": 356,
      "▁R": 357,
      "▁D": 358,
      "▁W": 359,
      "▁with": 360,
      "if": 361,
      "▁it": 362,
      "▁F": 363,
      "▁wh": 364,
      "em": 365,
      "▁was": 366,
      "▁an": 367,
      "ag": 368,
      "▁al": 369,
      "ri": 370,
      "ist": 371,
      "ers": 372,
      "▁L": 373,
      "▁con": 374,
      "est": 375,
      "od": 376,
      "▁N": 377,
      "th": 378,
      "ac": 379,
      "and": 380,
      "▁E": 381,
      "her": 382,
      "op": 383,
      "ate": 384,
      "um": 385,
      "ill": 386,
      "▁G": 387,
      "▁pro": 388,
      "▁at": 389,
      "ab": 390,
      "▁v": 391,
      "ess": 392,
      "ld": 393,
      "our": 394,
      "▁de": 395,
      "rom": 396,
      "oc": 397,
      "ew": 398,
      "res": 399,
      "pp": 400,
      "▁com": 401,
      "ity": 402,
      "qu": 403,
      "ht": 404,
      "▁or": 405,
      "▁by": 406,
      "▁J": 407,
      "ment": 408,
      "os": 409,
      "ke": 410,
      "ore": 411,
      "ort": 412,
      "▁O": 413,
      "ect": 414,
      "iv": 415,
      "ain": 416,
      "▁ex": 417,
      "▁are": 418,
      "▁\"": 419,
      "art": 420,
      "ies": 421,
      "ant": 422,
      "▁from": 423,
      "▁se": 424,
      "▁su": 425,
      "▁ha": 426,
      "▁r": 427,
      "end": 428,
      "all": 429,
      "..": 430,
      "ive": 431,
      "▁you": 432,
      "ud": 433,
      "nt": 434,
      "▁not": 435,
      "▁<": 436,
      "▁U": 437,
      "ard": 438,
      "ust": 439,
      "pt": 440,
      "▁ch": 441,
      "▁this": 442,
      "pe": 443,
      "ight": 444,
      "▁sh": 445,
      "ear": 446,
      "ial": 447,
      "▁In": 448,
      "▁u": 449,
      "▁le": 450,
      "▁have": 451,
      "ould": 452,
      "out": 453,
      "ge": 454,
      "▁his": 455,
      "ame": 456,
      "rou": 457,
      "▁we": 458,
      "ell": 459,
      "ass": 460,
      "ure": 461,
      "ber": 462,
      "og": 463,
      "ich": 464,
      "ost": 465,
      "ine": 466,
      "▁St": 467,
      "▁wor": 468,
      "ast": 469,
      "▁pl": 470,
      "ans": 471,
      "ue": 472,
      "per": 473,
      "▁=": 474,
      "pl": 475,
      "▁cl": 476,
      "▁K": 477,
      "ak": 478,
      "ions": 479,
      "ub": 480,
      "age": 481,
      "▁ab": 482,
      "ia": 483,
      "are": 484,
      "ff": 485,
      "ok": 486,
      "ome": 487,
      "▁“": 488,
      "ack": 489,
      "ong": 490,
      "ary": 491,
      "▁j": 492,
      "▁us": 493,
      "ated": 494,
      "▁has": 495,
      "ire": 496,
      "▁k": 497,
      "--": 498,
      "ap": 499,
      "ical": 500,
      "iz": 501,
      "cl": 502,
      "ip": 503,
      "ther": 504,
      "=\"": 505,
      "ice": 506,
      "▁whe": 507,
      "ry": 508,
      "▁all": 509,
      "▁Th": 510,
      "ide": 511,
      "ous": 512,
      "ere": 513,
      ");": 514,
      "ex": 515,
      "gh": 516,
      "ult": 517,
      "ie": 518,
      "▁go": 519,
      "▁can": 520,
      "▁Ch": 521,
      "▁im": 522,
      "▁un": 523,
      "ction": 524,
      "av": 525,
      "ind": 526,
      "cc": 527,
      "▁but": 528,
      "▁which": 529,
      "▁V": 530,
      "ence": 531,
      "▁ad": 532,
      "able": 533,
      "▁int": 534,
      "▁their": 535,
      "orm": 536,
      "▁who": 537,
      "▁en": 538,
      "▁{": 539,
      "▁do": 540,
      "▁will": 541,
      "ime": 542,
      "▁comp": 543,
      "▁cont": 544,
      "▁had": 545,
      "▁me": 546,
      "▁they": 547,
      "ord": 548,
      "▁*": 549,
      "ian": 550,
      "port": 551,
      "▁were": 552,
      "one": 553,
      "▁}": 554,
      "▁res": 555,
      "act": 556,
      "ib": 557,
      "ign": 558,
      "ations": 559,
      "▁out": 560,
      "//": 561,
      "so": 562,
      "fer": 563,
      "ru": 564,
      "ep": 565,
      "▁one": 566,
      "con": 567,
      "▁ar": 568,
      "ount": 569,
      "ance": 570,
      "▁her": 571,
      "▁sa": 572,
      "mer": 573,
      "ook": 574,
      "▁Y": 575,
      "ace": 576,
      "ally": 577,
      "▁ne": 578,
      "▁up": 579,
      "lic": 580,
      "▁It": 581,
      "▁He": 582,
      "▁man": 583,
      "▁if": 584,
      "ile": 585,
      "urn": 586,
      "ish": 587,
      "ks": 588,
      "▁more": 589,
      "ase": 590,
      "</": 591,
      "ory": 592,
      "du": 593,
      "▁tr": 594,
      "▁so": 595,
      "ress": 596,
      "rit": 597,
      "▁app": 598,
      "very": 599,
      "▁year": 600,
      "erv": 601,
      "ake": 602,
      "ov": 603,
      "int": 604,
      "▁about": 605,
      "▁per": 606,
      "vers": 607,
      "▁ag": 608,
      "ents": 609,
      "▁Re": 610,
      "ition": 611,
      "▁part": 612,
      "▁other": 613,
      "▁been": 614,
      "ach": 615,
      "▁also": 616,
      "ang": 617,
      "▁dis": 618,
      "ild": 619,
      "ose": 620,
      "own": 621,
      "▁qu": 622,
      "▁new": 623,
      "▁its": 624,
      "),": 625,
      ").": 626,
      "ll": 627,
      "form": 628,
      "ail": 629,
      "ely": 630,
      "▁ev": 631,
      "ces": 632,
      "ens": 633,
      "ob": 634,
      "ound": 635,
      "▁pe": 636,
      "ite": 637,
      "ree": 638,
      "irst": 639,
      "▁li": 640,
      "reat": 641,
      "▁Un": 642,
      "ays": 643,
      "▁would": 644,
      "ors": 645,
      "ings": 646,
      "vel": 647,
      "▁sp": 648,
      "tern": 649,
      "hed": 650,
      "ric": 651,
      "▁work": 652,
      "ople": 653,
      "▁te": 654,
      "ck": 655,
      "▁there": 656,
      "▁sc": 657,
      "ark": 658,
      "▁your": 659,
      "▁kn": 660,
      "▁pre": 661,
      "nder": 662,
      "▁she": 663,
      "com": 664,
      "▁|": 665,
      "▁over": 666,
      "▁my": 667,
      "▁time": 668,
      "▁them": 669,
      "ject": 670,
      "li": 671,
      "▁-": 672,
      "use": 673,
      "te": 674,
      "ates": 675,
      "ph": 676,
      "wn": 677,
      "▁ro": 678,
      "▁'": 679,
      "fter": 680,
      "▁when": 681,
      "▁said": 682,
      "wo": 683,
      "\">": 684,
      "old": 685,
      "▁ret": 686,
      "▁comm": 687,
      "ational": 688,
      "▁any": 689,
      "get": 690,
      "ext": 691,
      "ove": 692,
      "ade": 693,
      "ne": 694,
      "oll": 695,
      "clud": 696,
      "▁first": 697,
      "ath": 698,
      "▁off": 699,
      "oy": 700,
      "ng": 701,
      "ater": 702,
      "aw": 703,
      "▁into": 704,
      "▁than": 705,
      "ublic": 706,
      "▁bec": 707,
      "▁rec": 708,
      "▁our": 709,
      "▁$": 710,
      "▁–": 711,
      "ool": 712,
      "▁people": 713,
      "▁some": 714,
      "ring": 715,
      "**": 716,
      "ty": 717,
      "iss": 718,
      "ink": 719,
      "amp": 720,
      "ons": 721,
      "elf": 722,
      "▁As": 723,
      "ef": 724,
      "ont": 725,
      "▁Se": 726,
      "▁class": 727,
      "ual": 728,
      "▁des": 729,
      "▁what": 730,
      "ious": 731,
      "▁This": 732,
      "lect": 733,
      "we": 734,
      "▁him": 735,
      "ert": 736,
      "▁acc": 737,
      "ond": 738,
      "sp": 739,
      "▁under": 740,
      "▁get": 741,
      "▁Com": 742,
      "▁act": 743,
      "igh": 744,
      "▁no": 745,
      "ick": 746,
      "▁ind": 747,
      "man": 748,
      "iew": 749,
      "▁like": 750,
      "▁am": 751,
      "ood": 752,
      "pec": 753,
      "▁inter": 754,
      "rib": 755,
      "ock": 756,
      "ced": 757,
      "ug": 758,
      "ram": 759,
      "▁two": 760,
      "▁includ": 761,
      "red": 762,
      "ited": 763,
      "eth": 764,
      ".\"": 765,
      "ities": 766,
      "les": 767,
      "ft": 768,
      "▁We": 769,
      "▁Ar": 770,
      "▁just": 771,
      "round": 772,
      "▁New": 773,
      "▁only": 774,
      "rough": 775,
      "ident": 776,
      "▁att": 777,
      "ode": 778,
      "▁return": 779,
      "ata": 780,
      "▁Wh": 781,
      "ward": 782,
      "ause": 783,
      "▁bet": 784,
      "olog": 785,
      "▁fe": 786,
      "▁years": 787,
      "▁//": 788,
      "meric": 789,
      "ning": 790,
      "▁play": 791,
      "▁co": 792,
      "ener": 793,
      "▁[": 794,
      "▁cons": 795,
      "▁tra": 796,
      "▁after": 797,
      "▁how": 798,
      "row": 799,
      "▁bl": 800,
      "▁most": 801,
      "ough": 802,
      "oint": 803,
      "▁reg": 804,
      "▁&": 805,
      "ife": 806,
      "ied": 807,
      "▁prov": 808,
      "▁ass": 809,
      "▁_": 810,
      "ivers": 811,
      "ull": 812,
      "cre": 813,
      "▁rel": 814,
      "ict": 815,
      "▁De": 816,
      "▁may": 817,
      "land": 818,
      "itt": 819,
      "ise": 820,
      "▁pol": 821,
      "▁exp": 822,
      "ork": 823,
      "▁inv": 824,
      "ics": 825,
      "als": 826,
      "▁ra": 827,
      "----": 828,
      "▁through": 829,
      "▁em": 830,
      "arch": 831,
      "hip": 832,
      "ific": 833,
      "▁public": 834,
      "▁could": 835,
      "▁Americ": 836,
      "uring": 837,
      "ren": 838,
      "ps": 839,
      "ased": 840,
      "io": 841,
      "▁.": 842,
      "▁where": 843,
      "▁Al": 844,
      "▁add": 845,
      "yst": 846,
      "▁pr": 847,
      "ms": 848,
      "oth": 849,
      "▁</": 850,
      "▁back": 851,
      "ating": 852,
      "hen": 853,
      "ily": 854,
      "▁bu": 855,
      "▁serv": 856,
      "▁Pro": 857,
      "▁And": 858,
      "▁sub": 859,
      "ments": 860,
      "▁rem": 861,
      "▁stud": 862,
      "==": 863,
      "gan": 864,
      "▁def": 865,
      "ran": 866,
      "()": 867,
      "▁imp": 868,
      "▁fl": 869,
      "▁supp": 870,
      "ss": 871,
      "▁col": 872,
      "ative": 873,
      "▁fin": 874,
      "▁know": 875,
      "▁such": 876,
      "und": 877,
      "cept": 878,
      "▁did": 879,
      "chool": 880,
      "▁these": 881,
      "iel": 882,
      "riv": 883,
      "cess": 884,
      "fore": 885,
      ".”": 886,
      "▁set": 887,
      "ix": 888,
      "▁An": 889,
      "▁again": 890,
      "erson": 891,
      "▁end": 892,
      "...": 893,
      "▁need": 894,
      "▁pos": 895,
      "▁ent": 896,
      "▁well": 897,
      "cy": 898,
      "tt": 899,
      "ular": 900,
      "▁then": 901,
      "▁ac": 902,
      "▁#": 903,
      "▁pres": 904,
      "up": 905,
      "orn": 906,
      "ts": 907,
      "ower": 908,
      "ys": 909,
      "ful": 910,
      "▁Le": 911,
      "▁many": 912,
      "ars": 913,
      "▁dif": 914,
      "▁ob": 915,
      "ystem": 916,
      "vern": 917,
      "▁produ": 918,
      "uch": 919,
      "St": 920,
      "ype": 921,
      "ax": 922,
      "▁see": 923,
      "velop": 924,
      "irect": 925,
      "▁/": 926,
      "ract": 927,
      "ember": 928,
      "other": 929,
      "che": 930,
      "ible": 931,
      "▁count": 932,
      "▁ph": 933,
      "ility": 934,
      "oun": 935,
      "ient": 936,
      "air": 937,
      "▁right": 938,
      "▁inst": 939,
      "any": 940,
      "▁fil": 941,
      "ution": 942,
      "ash": 943,
      "ues": 944,
      "▁call": 945,
      "▁every": 946,
      "▁now": 947,
      "arg": 948,
      "▁import": 949,
      "▁made": 950,
      "▁own": 951,
      "ures": 952,
      "uth": 953,
      "▁trans": 954,
      "ale": 955,
      "▁But": 956,
      "der": 957,
      "ins": 958,
      "....": 959,
      "its": 960,
      "ement": 961,
      "alue": 962,
      "iversity": 963,
      "▁make": 964,
      "ah": 965,
      "▁She": 966,
      "led": 967,
      "▁Sh": 968,
      "ince": 969,
      "▁being": 970,
      "pr": 971,
      "▁because": 972,
      "oh": 973,
      "az": 974,
      "oci": 975,
      "alth": 976,
      "▁very": 977,
      "day": 978,
      "ton": 979,
      "▁world": 980,
      "▁even": 981,
      "min": 982,
      "ists": 983,
      "ize": 984,
      "▁spec": 985,
      "▁long": 986,
      "ield": 987,
      "▁var": 988,
      "aking": 989,
      "▁For": 990,
      "ished": 991,
      "ange": 992,
      "ween": 993,
      "▁want": 994,
      "▁look": 995,
      "▁loc": 996,
      "ason": 997,
      "▁should": 998,
      "▁fam": 999,
      "ource": 1000,
      "ouse": 1001,
      "▁way": 1002,
      "ision": 1003,
      "ience": 1004,
      "ices": 1005,
      "▁dec": 1006,
      "ather": 1007,
      "▁art": 1008,
      "▁num": 1009,
      "ollow": 1010,
      "ner": 1011,
      "ames": 1012,
      "▁resp": 1013,
      "▁Ex": 1014,
      "▁before": 1015,
      "ec": 1016,
      "ism": 1017,
      "▁ke": 1018,
      "▁hel": 1019,
      "way": 1020,
      "▁ear": 1021,
      "ven": 1022,
      "The": 1023,
      "▁You": 1024,
      "tr": 1025,
      "▁requ": 1026,
      "▁use": 1027,
      "ences": 1028,
      "▁those": 1029,
      "ble": 1030,
      "▁eff": 1031,
      "iness": 1032,
      "▁fun": 1033,
      "uc": 1034,
      "▁sur": 1035,
      "▁gr": 1036,
      "ten": 1037,
      "▁between": 1038,
      "ting": 1039,
      "vent": 1040,
      "▁sm": 1041,
      "▁show": 1042,
      "ives": 1043,
      "▁name": 1044,
      "oot": 1045,
      ",”": 1046,
      "pen": 1047,
      "roup": 1048,
      "▁ser": 1049,
      "▁Cl": 1050,
      "ute": 1051,
      "▁found": 1052,
      "▁On": 1053,
      "▁Ind": 1054,
      "▁ed": 1055,
      "ines": 1056,
      "eter": 1057,
      "▁writ": 1058,
      "▁bel": 1059,
      "▁lead": 1060,
      "▁mon": 1061,
      "cond": 1062,
      "▁develop": 1063,
      "▁start": 1064,
      "▁el": 1065,
      "▁gu": 1066,
      "let": 1067,
      "uss": 1068,
      ",\"": 1069,
      "ters": 1070,
      "▁think": 1071,
      "▁much": 1072,
      ".,": 1073,
      "▁const": 1074,
      "ght": 1075,
      "view": 1076,
      "▁cent": 1077,
      "▁@": 1078,
      "co": 1079,
      "cent": 1080,
      "gram": 1081,
      "par": 1082,
      "▁Is": 1083,
      "▁med": 1084,
      "atch": 1085,
      "▁life": 1086,
      "ave": 1087,
      "sc": 1088,
      "▁mod": 1089,
      "ern": 1090,
      "▁differ": 1091,
      "▁exper": 1092,
      "▁high": 1093,
      "▁great": 1094,
      "▁min": 1095,
      "\",": 1096,
      "▁used": 1097,
      "rent": 1098,
      "▁person": 1099,
      "▁Ad": 1100,
      "read": 1101,
      "▁rep": 1102,
      "▁good": 1103,
      "▁cur": 1104,
      "▁down": 1105,
      "imes": 1106,
      "ider": 1107,
      "ER": 1108,
      "▁follow": 1109,
      "▁help": 1110,
      "▁University": 1111,
      "ral": 1112,
      "▁ter": 1113,
      "ever": 1114,
      "self": 1115,
      "ature": 1116,
      "::": 1117,
      "usiness": 1118,
      "▁Tr": 1119,
      "In": 1120,
      "ank": 1121,
      "▁American": 1122,
      "▁stat": 1123,
      "▁form": 1124,
      "▁child": 1125,
      "ier": 1126,
      "▁cour": 1127,
      "au": 1128,
      "▁don": 1129,
      "▁Sc": 1130,
      "▁If": 1131,
      "▁commun": 1132,
      "els": 1133,
      "▁cre": 1134,
      "aj": 1135,
      "ages": 1136,
      "formation": 1137,
      "->": 1138,
      "▁while": 1139,
      "ized": 1140,
      "▁ext": 1141,
      "▁Con": 1142,
      "ection": 1143,
      "▁read": 1144,
      "att": 1145,
      "ruct": 1146,
      "alk": 1147,
      "vernment": 1148,
      "▁three": 1149,
      "▁Comm": 1150,
      "ually": 1151,
      "ology": 1152,
      "▁during": 1153,
      "ved": 1154,
      "▁dist": 1155,
      "▁||": 1156,
      "▁—": 1157,
      "ets": 1158,
      "../": 1159,
      "▁last": 1160,
      "▁Col": 1161,
      "▁does": 1162,
      "▁Q": 1163,
      "▁sign": 1164,
      "▁som": 1165,
      "▁There": 1166,
      "ript": 1167,
      "▁same": 1168,
      "eng": 1169,
      "ury": 1170,
      "▁car": 1171,
      "▁est": 1172,
      "ital": 1173,
      "▁system": 1174,
      "▁hand": 1175,
      "▁gener": 1176,
      "▁char": 1177,
      "▁care": 1178,
      "ants": 1179,
      "ek": 1180,
      "ired": 1181,
      "▁both": 1182,
      "▁Ph": 1183,
      "▁They": 1184,
      "▁support": 1185,
      "pro": 1186,
      "eg": 1187,
      "ww": 1188,
      "ann": 1189,
      "ness": 1190,
      "mber": 1191,
      "bers": 1192,
      "▁Z": 1193,
      "anc": 1194,
      "omen": 1195,
      "://": 1196,
      "outh": 1197,
      "chn": 1198,
      "ural": 1199,
      "raph": 1200,
      "▁here": 1201,
      "▁law": 1202,
      "▁day": 1203,
      "ator": 1204,
      "ional": 1205,
      "ined": 1206,
      "ross": 1207,
      "▁How": 1208,
      "ety": 1209,
      "ared": 1210,
      "▁book": 1211,
      "ody": 1212,
      "the": 1213,
      "arm": 1214,
      "son": 1215,
      "▁school": 1216,
      "▁take": 1217,
      "▁United": 1218,
      "illion": 1219,
      "▁result": 1220,
      "▁Bl": 1221,
      "▁point": 1222,
      "ina": 1223,
      "▁mem": 1224,
      "ml": 1225,
      "▁direct": 1226,
      "inal": 1227,
      "▁still": 1228,
      "▁hist": 1229,
      "▁str": 1230,
      "orth": 1231,
      "to": 1232,
      "▁team": 1233,
      "ected": 1234,
      "▁contin": 1235,
      "▁find": 1236,
      "▁against": 1237,
      "▁gl": 1238,
      "▁inf": 1239,
      "ON": 1240,
      "essage": 1241,
      "▁sim": 1242,
      "▁conf": 1243,
      "lement": 1244,
      "▁la": 1245,
      "usic": 1246,
      "▁state": 1247,
      "▁dep": 1248,
      "▁Sp": 1249,
      "▁including": 1250,
      "▁say": 1251,
      "ohn": 1252,
      "app": 1253,
      "▁around": 1254,
      "▁each": 1255,
      "ox": 1256,
      "ically": 1257,
      "▁data": 1258,
      "ense": 1259,
      "uro": 1260,
      "eb": 1261,
      "▁real": 1262,
      "▁partic": 1263,
      "▁place": 1264,
      "IN": 1265,
      "▁report": 1266,
      "▁program": 1267,
      "▁number": 1268,
      "rist": 1269,
      "▁par": 1270,
      "oad": 1271,
      "▁Pl": 1272,
      "ik": 1273,
      "▁fact": 1274,
      "iving": 1275,
      "▁pass": 1276,
      "▁av": 1277,
      "ym": 1278,
      "ror": 1279,
      "▁At": 1280,
      "oid": 1281,
      "▁Mar": 1282,
      "▁Eng": 1283,
      "ery": 1284,
      "gy": 1285,
      "▁business": 1286,
      "lish": 1287,
      "ission": 1288,
      "▁build": 1289,
      "▁appro": 1290,
      "▁sl": 1291,
      "▁mark": 1292,
      "ister": 1293,
      "ccess": 1294,
      "▁John": 1295,
      "▁second": 1296,
      "▁che": 1297,
      "line": 1298,
      "▁open": 1299,
      "▁pop": 1300,
      "put": 1301,
      "akes": 1302,
      "▁different": 1303,
      "uthor": 1304,
      "ived": 1305,
      "▁leg": 1306,
      "ought": 1307,
      "rid": 1308,
      "ron": 1309,
      "cur": 1310,
      "▁home": 1311,
      "▁All": 1312,
      "ref": 1313,
      "▁organ": 1314,
      "urch": 1315,
      "ple": 1316,
      "▁going": 1317,
      "(\"": 1318,
      "enn": 1319,
      "ris": 1320,
      "▁‘": 1321,
      "▁iss": 1322,
      "▁mov": 1323,
      "sh": 1324,
      "',": 1325,
      "▁information": 1326,
      "▁Be": 1327,
      "▁oper": 1328,
      "uman": 1329,
      "▁list": 1330,
      "▁run": 1331,
      "ley": 1332,
      "▁ca": 1333,
      "pos": 1334,
      "▁case": 1335,
      "ving": 1336,
      "▁must": 1337,
      "▁vis": 1338,
      "ocial": 1339,
      "▁head": 1340,
      "▁best": 1341,
      "ration": 1342,
      "▁bro": 1343,
      "▁prot": 1344,
      "ober": 1345,
      "▁rele": 1346,
      "span": 1347,
      "▁prof": 1348,
      "yn": 1349,
      "();": 1350,
      "▁main": 1351,
      "▁:": 1352,
      "▁+": 1353,
      "conom": 1354,
      "lection": 1355,
      "gg": 1356,
      "ploy": 1357,
      "ternational": 1358,
      "▁provid": 1359,
      "ument": 1360,
      "▁family": 1361,
      "▁May": 1362,
      "oard": 1363,
      "ially": 1364,
      "▁Or": 1365,
      "une": 1366,
      "div": 1367,
      "▁rece": 1368,
      "▁record": 1369,
      "--------": 1370,
      "til": 1371,
      "▁So": 1372,
      "▁since": 1373,
      "▁States": 1374,
      "iver": 1375,
      "med": 1376,
      "▁government": 1377,
      "▁expl": 1378,
      "▁adv": 1379,
      "▁Res": 1380,
      "set": 1381,
      "ittle": 1382,
      "></": 1383,
      "▁polit": 1384,
      "lear": 1385,
      "▁interest": 1386,
      "▁cor": 1387,
      "▁Wor": 1388,
      "ency": 1389,
      "riend": 1390,
      "▁del": 1391,
      "hes": 1392,
      "arn": 1393,
      "▁ins": 1394,
      "ball": 1395,
      "▁US": 1396,
      "lished": 1397,
      "ves": 1398,
      "▁opp": 1399,
      "bs": 1400,
      "me": 1401,
      "que": 1402,
      "ott": 1403,
      "▁process": 1404,
      "▁ann": 1405,
      "▁line": 1406,
      "▁rest": 1407,
      "▁Jan": 1408,
      "ray": 1409,
      "▁design": 1410,
      "▁poss": 1411,
      "▁four": 1412,
      "▁really": 1413,
      "▁ref": 1414,
      "ird": 1415,
      "▁Cent": 1416,
      "▁old": 1417,
      "▁another": 1418,
      "▁function": 1419,
      "▁Can": 1420,
      "▁power": 1421,
      "▁perform": 1422,
      "ways": 1423,
      "__": 1424,
      "por": 1425,
      "ified": 1426,
      "▁offic": 1427,
      "AT": 1428,
      "be": 1429,
      "▁test": 1430,
      "ians": 1431,
      "less": 1432,
      "▁rese": 1433,
      "ised": 1434,
      "ains": 1435,
      "ior": 1436,
      "AR": 1437,
      "oss": 1438,
      "ries": 1439,
      "rol": 1440,
      "ote": 1441,
      "▁health": 1442,
      "ained": 1443,
      "▁disc": 1444,
      "▁pat": 1445,
      "arent": 1446,
      "ization": 1447,
      "▁few": 1448,
      "><": 1449,
      "▁never": 1450,
      "inc": 1451,
      "▁dem": 1452,
      "▁happ": 1453,
      "▁month": 1454,
      "ases": 1455,
      "ately": 1456,
      "▁sing": 1457,
      "▁self": 1458,
      "▁country": 1459,
      "▁invest": 1460,
      "▁post": 1461,
      "▁stand": 1462,
      "ES": 1463,
      "▁Car": 1464,
      "▁too": 1465,
      "▁project": 1466,
      "▁value": 1467,
      "▁type": 1468,
      "ling": 1469,
      "▁York": 1470,
      "▁Man": 1471,
      "▁When": 1472,
      "▁incre": 1473,
      "rict": 1474,
      "▁*/": 1475,
      "ertain": 1476,
      "▁That": 1477,
      "▁priv": 1478,
      "ream": 1479,
      "▁current": 1480,
      "▁Te": 1481,
      "▁small": 1482,
      "ried": 1483,
      "▁film": 1484,
      "▁belie": 1485,
      "by": 1486,
      "ajor": 1487,
      "▁without": 1488,
      "of": 1489,
      "ality": 1490,
      "org": 1491,
      "▁order": 1492,
      "stand": 1493,
      "▁Go": 1494,
      "▁techn": 1495,
      "▁National": 1496,
      "▁effect": 1497,
      "▁er": 1498,
      "▁Christ": 1499,
      "▁come": 1500,
      "OR": 1501,
      "itions": 1502,
      "yp": 1503,
      "▁Euro": 1504,
      "▁sk": 1505,
      "ething": 1506,
      "▁sol": 1507,
      "▁company": 1508,
      "ivid": 1509,
      "▁Am": 1510,
      "▁To": 1511,
      "▁cap": 1512,
      "lation": 1513,
      "****": 1514,
      "▁turn": 1515,
      "▁allow": 1516,
      "▁sever": 1517,
      "▁spe": 1518,
      "html": 1519,
      "ining": 1520,
      "urs": 1521,
      "▁What": 1522,
      "Ex": 1523,
      "ev": 1524,
      "resent": 1525,
      "▁later": 1526,
      "aim": 1527,
      "atic": 1528,
      "../../": 1529,
      "ask": 1530,
      "▁Co": 1531,
      "▁next": 1532,
      "▁top": 1533,
      "▁No": 1534,
      "▁quest": 1535,
      "▁inc": 1536,
      "▁mat": 1537,
      "iven": 1538,
      "▁consider": 1539,
      "▁called": 1540,
      "▁put": 1541,
      "ead": 1542,
      "▁elect": 1543,
      "▁women": 1544,
      "▁prom": 1545,
      "ethod": 1546,
      "▁World": 1547,
      "thing": 1548,
      "▁music": 1549,
      "▁until": 1550,
      "ium": 1551,
      "ograph": 1552,
      "▁mar": 1553,
      "▁group": 1554,
      "====": 1555,
      "▁little": 1556,
      "▁i": 1557,
      "▁Pol": 1558,
      "▁htt": 1559,
      "▁things": 1560,
      "▁plan": 1561,
      "▁,": 1562,
      "▁orig": 1563,
      "▁aff": 1564,
      "ged": 1565,
      "▁using": 1566,
      "▁desc": 1567,
      "▁fac": 1568,
      "ump": 1569,
      "ope": 1570,
      "▁children": 1571,
      "▁might": 1572,
      "▁met": 1573,
      "reen": 1574,
      "▁left": 1575,
      "▁present": 1576,
      "ample": 1577,
      "▁manag": 1578,
      "▁within": 1579,
      "▁ide": 1580,
      "itle": 1581,
      "▁State": 1582,
      "ush": 1583,
      "oman": 1584,
      "▁something": 1585,
      "ify": 1586,
      "▁land": 1587,
      "▁ask": 1588,
      "EN": 1589,
      "▁million": 1590,
      "▁known": 1591,
      "▁det": 1592,
      "vious": 1593,
      "▁po": 1594,
      "▁mil": 1595,
      "▁seem": 1596,
      "▁game": 1597,
      "right": 1598,
      "iron": 1599,
      "▁Ass": 1600,
      "ney": 1601,
      "▁Europe": 1602,
      "ourn": 1603,
      "▁lot": 1604,
      "▁important": 1605,
      "▁let": 1606,
      "▁equ": 1607,
      "ferences": 1608,
      "ended": 1609,
      "ulation": 1610,
      "▁eng": 1611,
      "▁beh": 1612,
      "ories": 1613,
      "▁val": 1614,
      "▁es": 1615,
      "ai": 1616,
      "▁Ge": 1617,
      "ger": 1618,
      "▁says": 1619,
      "▁bre": 1620,
      "ently": 1621,
      "▁near": 1622,
      "▁cr": 1623,
      "ternal": 1624,
      "ats": 1625,
      "▁local": 1626,
      "▁Ger": 1627,
      "ret": 1628,
      "('": 1629,
      "cont": 1630,
      "aster": 1631,
      "▁success": 1632,
      "▁occ": 1633,
      "ording": 1634,
      "arge": 1635,
      "▁men": 1636,
      "▁War": 1637,
      "here": 1638,
      "▁war": 1639,
      "▁By": 1640,
      "▁href": 1641,
      "▁level": 1642,
      "gin": 1643,
      "▁Brit": 1644,
      "▁With": 1645,
      "▁win": 1646,
      "▁got": 1647,
      "▁try": 1648,
      "ention": 1649,
      "▁Pr": 1650,
      "▁Count": 1651,
      "ault": 1652,
      "▁author": 1653,
      "▁always": 1654,
      "dd": 1655,
      "iam": 1656,
      "▁view": 1657,
      "ference": 1658,
      "▁Pres": 1659,
      "▁After": 1660,
      "▁proper": 1661,
      "osed": 1662,
      "▁Af": 1663,
      "irc": 1664,
      "▁city": 1665,
      "idd": 1666,
      "▁less": 1667,
      "▁members": 1668,
      "Pro": 1669,
      "▁charact": 1670,
      "▁friend": 1671,
      "▁social": 1672,
      "▁Ju": 1673,
      "ID": 1674,
      "my": 1675,
      "lex": 1676,
      "ued": 1677,
      "▁econom": 1678,
      "▁feel": 1679,
      "▁water": 1680,
      "▁fore": 1681,
      "▁Min": 1682,
      "▁Med": 1683,
      "source": 1684,
      "used": 1685,
      "ably": 1686,
      "▁event": 1687,
      "ively": 1688,
      "▁grow": 1689,
      "▁major": 1690,
      "▁big": 1691,
      "▁His": 1692,
      "▁non": 1693,
      "▁came": 1694,
      "icle": 1695,
      "uary": 1696,
      "▁South": 1697,
      "▁story": 1698,
      "▁Ab": 1699,
      "▁opt": 1700,
      "▁history": 1701,
      "wards": 1702,
      "▁week": 1703,
      "ene": 1704,
      "▁Fl": 1705,
      "▁pay": 1706,
      "▁area": 1707,
      "ait": 1708,
      "▁chang": 1709,
      "AN": 1710,
      "cer": 1711,
      "▁move": 1712,
      "▁human": 1713,
      "▁else": 1714,
      "▁product": 1715,
      "▁Par": 1716,
      "▁Mr": 1717,
      "▁days": 1718,
      "▁Oct": 1719,
      "alse": 1720,
      "▁Aust": 1721,
      "rand": 1722,
      "ailable": 1723,
      "▁season": 1724,
      "▁educ": 1725,
      "trans": 1726,
      "ception": 1727,
      "ST": 1728,
      "message": 1729,
      "▁young": 1730,
      "icy": 1731,
      "▁Act": 1732,
      "rop": 1733,
      "alf": 1734,
      "work": 1735,
      "▁death": 1736,
      "▁true": 1737,
      "▁et": 1738,
      "ole": 1739,
      "▁early": 1740,
      "artment": 1741,
      "oney": 1742,
      "name": 1743,
      "▁One": 1744,
      "▁employ": 1745,
      "▁community": 1746,
      "▁service": 1747,
      "▁School": 1748,
      "stit": 1749,
      "▁word": 1750,
      "ler": 1751,
      "Name": 1752,
      "td": 1753,
      "▁change": 1754,
      "▁thought": 1755,
      "▁took": 1756,
      "col": 1757,
      "▁Gu": 1758,
      "▁proble": 1759,
      "ee": 1760,
      "▁pub": 1761,
      "ered": 1762,
      "eral": 1763,
      "▁hard": 1764,
      "yle": 1765,
      "▁several": 1766,
      "▁better": 1767,
      "▁Will": 1768,
      "ours": 1769,
      "ering": 1770,
      "add": 1771,
      "▁Cal": 1772,
      "lege": 1773,
      "back": 1774,
      "side": 1775,
      "AL": 1776,
      "▁research": 1777,
      "▁along": 1778,
      "▁March": 1779,
      "ches": 1780,
      "duct": 1781,
      "▁Su": 1782,
      "osp": 1783,
      "▁En": 1784,
      "▁sit": 1785,
      "........": 1786,
      "ination": 1787,
      "▁Aug": 1788,
      "▁following": 1789,
      "▁dra": 1790,
      "▁Ed": 1791,
      "▁pract": 1792,
      "leg": 1793,
      "▁fund": 1794,
      "▁working": 1795,
      "iod": 1796,
      "ability": 1797,
      "▁meet": 1798,
      "▁estab": 1799,
      "ustom": 1800,
      "for": 1801,
      "▁Bro": 1802,
      "ony": 1803,
      "▁became": 1804,
      "▁away": 1805,
      "▁Apr": 1806,
      "▁private": 1807,
      "▁eas": 1808,
      "▁activ": 1809,
      "▁offer": 1810,
      "▁full": 1811,
      "val": 1812,
      "▁camp": 1813,
      "ards": 1814,
      "▁series": 1815,
      "▁Sept": 1816,
      "uck": 1817,
      "this": 1818,
      "▁keep": 1819,
      "ances": 1820,
      "▁students": 1821,
      "))": 1822,
      "not": 1823,
      "ched": 1824,
      "angu": 1825,
      "▁final": 1826,
      "af": 1827,
      "▁often": 1828,
      "ential": 1829,
      "▁cult": 1830,
      "▁addition": 1831,
      "rad": 1832,
      "ortun": 1833,
      "▁far": 1834,
      "▁based": 1835,
      "ales": 1836,
      "ored": 1837,
      "ribut": 1838,
      "▁house": 1839,
      "▁Rep": 1840,
      "▁Har": 1841,
      "ending": 1842,
      "▁Pe": 1843,
      "roll": 1844,
      "▁June": 1845,
      "itor": 1846,
      "ront": 1847,
      "uff": 1848,
      "▁become": 1849,
      "):": 1850,
      "▁past": 1851,
      "▁North": 1852,
      "ule": 1853,
      "go": 1854,
      "bl": 1855,
      "viron": 1856,
      "uture": 1857,
      "aut": 1858,
      "▁Em": 1859,
      "▁City": 1860,
      "ament": 1861,
      "▁cost": 1862,
      "Th": 1863,
      "obal": 1864,
      "▁--": 1865,
      "It": 1866,
      "▁didn": 1867,
      "▁indust": 1868,
      "Type": 1869,
      "ights": 1870,
      "▁market": 1871,
      "ising": 1872,
      "ividual": 1873,
      "▁love": 1874,
      "▁Her": 1875,
      "▁profess": 1876,
      "▁cond": 1877,
      "▁access": 1878,
      "▁January": 1879,
      "ured": 1880,
      "▁able": 1881,
      "▁Part": 1882,
      "aint": 1883,
      "AS": 1884,
      "iol": 1885,
      "▁kind": 1886,
      "sel": 1887,
      "▁Mc": 1888,
      "empt": 1889,
      "▁short": 1890,
      "umm": 1891,
      "de": 1892,
      "▁July": 1893,
      "acy": 1894,
      "▁foot": 1895,
      "▁given": 1896,
      "▁available": 1897,
      "▁Fran": 1898,
      "rew": 1899,
      "▁April": 1900,
      "▁development": 1901,
      "▁song": 1902,
      "Ch": 1903,
      "urther": 1904,
      "▁X": 1905,
      "key": 1906,
      "RE": 1907,
      "▁!": 1908,
      "▁large": 1909,
      "▁free": 1910,
      "▁among": 1911,
      "idence": 1912,
      "▁field": 1913,
      "code": 1914,
      "▁di": 1915,
      "ane": 1916,
      "aff": 1917,
      "ateg": 1918,
      "ready": 1919,
      "▁include": 1920,
      "aken": 1921,
      "▁References": 1922,
      "▁Im": 1923,
      "▁invol": 1924,
      "ither": 1925,
      "▁experience": 1926,
      "▁went": 1927,
      "version": 1928,
      "▁services": 1929,
      "▁Dep": 1930,
      "Id": 1931,
      "▁making": 1932,
      "▁aut": 1933,
      "▁However": 1934,
      "▁Comp": 1935,
      "rap": 1936,
      "▁German": 1937,
      "▁=>": 1938,
      "▁President": 1939,
      "reg": 1940,
      "rem": 1941,
      "▁arg": 1942,
      "▁Canad": 1943,
      "Con": 1944,
      "bum": 1945,
      "ware": 1946,
      "\".": 1947,
      "▁tri": 1948,
      "▁mean": 1949,
      "param": 1950,
      "yl": 1951,
      "▁ident": 1952,
      "gether": 1953,
      "▁together": 1954,
      "▁Me": 1955,
      "cember": 1956,
      "▁particular": 1957,
      "▁conn": 1958,
      "iter": 1959,
      "aps": 1960,
      "ache": 1961,
      "/>": 1962,
      "▁tell": 1963,
      "▁September": 1964,
      "▁across": 1965,
      "▁trad": 1966,
      "▁having": 1967,
      "▁October": 1968,
      "▁understand": 1969,
      "▁claim": 1970,
      "sw": 1971,
      "▁won": 1972,
      "comm": 1973,
      "▁certain": 1974,
      "▁times": 1975,
      "▁lim": 1976,
      "arget": 1977,
      "▁clear": 1978,
      "▁course": 1979,
      "ows": 1980,
      "over": 1981,
      "▁August": 1982,
      "IT": 1983,
      "curity": 1984,
      "vironment": 1985,
      "▁individual": 1986,
      "▁special": 1987,
      "▁deb": 1988,
      "ovember": 1989,
      "onse": 1990,
      "▁national": 1991,
      "cil": 1992,
      "ape": 1993,
      "▁air": 1994,
      "ources": 1995,
      "▁sw": 1996,
      "▁Russ": 1997,
      "▁Art": 1998,
      "ung": 1999,
      "most": 2000,
      "ipp": 2001,
      "▁give": 2002,
      "▁object": 2003,
      "str": 2004,
      "inks": 2005,
      "##": 2006,
      "Re": 2007,
      "▁cover": 2008,
      "▁Off": 2009,
      "String": 2010,
      "▁My": 2011,
      "▁others": 2012,
      "amed": 2013,
      "▁appear": 2014,
      "▁hold": 2015,
      "ogn": 2016,
      "▁Ag": 2017,
      "ief": 2018,
      "▁Reg": 2019,
      "▁Per": 2020,
      "▁period": 2021,
      "▁December": 2022,
      "Cont": 2023,
      "▁side": 2024,
      "ilt": 2025,
      "▁five": 2026,
      "▁bas": 2027,
      "▁>": 2028,
      "▁dev": 2029,
      "play": 2030,
      "▁Afric": 2031,
      "abor": 2032,
      "▁provide": 2033,
      "▁foc": 2034,
      "▁Feb": 2035,
      "▁though": 2036,
      "ports": 2037,
      "aterial": 2038,
      "▁represent": 2039,
      "▁already": 2040,
      "▁job": 2041,
      "▁lik": 2042,
      "▁Bar": 2043,
      "▁ever": 2044,
      "ison": 2045,
      "▁example": 2046,
      "▁pa": 2047,
      "?\"": 2048,
      "head": 2049,
      "▁ben": 2050,
      "itive": 2051,
      "▁App": 2052,
      "▁Hist": 2053,
      "▁former": 2054,
      "▁These": 2055,
      "reet": 2056,
      "▁crit": 2057,
      "▁least": 2058,
      "ift": 2059,
      "▁jo": 2060,
      "▁talk": 2061,
      "oice": 2062,
      "▁November": 2063,
      "▁doc": 2064,
      "ones": 2065,
      "▁political": 2066,
      "▁today": 2067,
      "▁Not": 2068,
      "itary": 2069,
      "ague": 2070,
      "▁County": 2071,
      "imate": 2072,
      "▁Dav": 2073,
      "irl": 2074,
      "▁El": 2075,
      "LE": 2076,
      "ociety": 2077,
      "▁void": 2078,
      "▁`": 2079,
      "lev": 2080,
      "▁init": 2081,
      "cript": 2082,
      "\"/>": 2083,
      "▁applic": 2084,
      "▁conc": 2085,
      "▁larg": 2086,
      "▁told": 2087,
      "lu": 2088,
      "▁why": 2089,
      "ma": 2090,
      "ients": 2091,
      "▁thing": 2092,
      "▁held": 2093,
      "▁God": 2094,
      "cret": 2095,
      "ides": 2096,
      "pect": 2097,
      "though": 2098,
      "▁ant": 2099,
      "▁fre": 2100,
      "▁tem": 2101,
      "ened": 2102,
      "▁key": 2103,
      "Com": 2104,
      "▁Cont": 2105,
      "▁Cour": 2106,
      "▁America": 2107,
      "▁compet": 2108,
      "ey": 2109,
      "▁shall": 2110,
      "▁study": 2111,
      "iet": 2112,
      "▁port": 2113,
      "▁future": 2114,
      "ington": 2115,
      "▁money": 2116,
      "ster": 2117,
      "olution": 2118,
      "▁member": 2119,
      "hern": 2120,
      "opt": 2121,
      "▁mult": 2122,
      "▁control": 2123,
      "▁account": 2124,
      "ser": 2125,
      "cing": 2126,
      "▁began": 2127,
      "aces": 2128,
      "augh": 2129,
      "▁six": 2130,
      "▁fail": 2131,
      "▁vol": 2132,
      "▁tax": 2133,
      "▁role": 2134,
      "illed": 2135,
      "▁House": 2136,
      "▁means": 2137,
      "▁Gl": 2138,
      "▁once": 2139,
      "▁West": 2140,
      "▁**": 2141,
      "vert": 2142,
      "▁describ": 2143,
      "elt": 2144,
      "▁players": 2145,
      "ervice": 2146,
      "AC": 2147,
      "IC": 2148,
      "ike": 2149,
      "▁done": 2150,
      "▁creat": 2151,
      "▁/**": 2152,
      "▁British": 2153,
      "▁album": 2154,
      "▁sent": 2155,
      "www": 2156,
      "▁net": 2157,
      "▁seen": 2158,
      "▁light": 2159,
      "translation": 2160,
      "apt": 2161,
      "▁Dr": 2162,
      "▁impro": 2163,
      "oph": 2164,
      "▁Austral": 2165,
      "▁treat": 2166,
      "▁possible": 2167,
      "mod": 2168,
      "ique": 2169,
      "ership": 2170,
      "ength": 2171,
      "▁relations": 2172,
      "epend": 2173,
      "time": 2174,
      "amb": 2175,
      "▁Cor": 2176,
      "▁works": 2177,
      "ills": 2178,
      "ournal": 2179,
      "▁Char": 2180,
      "▁Do": 2181,
      "▁enough": 2182,
      "▁whether": 2183,
      "▁sure": 2184,
      "ruary": 2185,
      "▁age": 2186,
      "anguage": 2187,
      "itted": 2188,
      "▁room": 2189,
      "ze": 2190,
      "ideo": 2191,
      "▁building": 2192,
      "▁body": 2193,
      "▁ve": 2194,
      "umb": 2195,
      "▁bo": 2196,
      "ression": 2197,
      "▁reason": 2198,
      "minist": 2199,
      "▁started": 2200,
      "ilar": 2201,
      "▁King": 2202,
      "▁tw": 2203,
      "uild": 2204,
      "▁strong": 2205,
      "irth": 2206,
      "▁pot": 2207,
      "▁pri": 2208,
      "wh": 2209,
      "▁pur": 2210,
      "▁live": 2211,
      "ivil": 2212,
      "▁percent": 2213,
      "hers": 2214,
      "▁single": 2215,
      "▁tot": 2216,
      "ondon": 2217,
      "itte": 2218,
      "Res": 2219,
      "ators": 2220,
      "new": 2221,
      "alt": 2222,
      "▁months": 2223,
      "ocation": 2224,
      "▁Des": 2225,
      "class": 2226,
      "type": 2227,
      "▁Pa": 2228,
      "ests": 2229,
      "ham": 2230,
      "▁Qu": 2231,
      "htt": 2232,
      "▁phot": 2233,
      "adem": 2234,
      "▁character": 2235,
      "▁night": 2236,
      "▁due": 2237,
      "▁mom": 2238,
      "ground": 2239,
      "iff": 2240,
      "▁International": 2241,
      "lete": 2242,
      "▁English": 2243,
      "face": 2244,
      "▁court": 2245,
      "▁exc": 2246,
      "ots": 2247,
      "▁anal": 2248,
      "ouncil": 2249,
      "ival": 2250,
      "▁ris": 2251,
      "▁February": 2252,
      "▁received": 2253,
      "▁exist": 2254,
      "ruction": 2255,
      "▁ey": 2256,
      "off": 2257,
      "▁hig": 2258,
      "▁struct": 2259,
      "▁rights": 2260,
      "aining": 2261,
      "▁complet": 2262,
      "▁title": 2263,
      "pre": 2264,
      "ecut": 2265,
      "We": 2266,
      "▁null": 2267,
      "▁saf": 2268,
      "▁method": 2269,
      "▁question": 2270,
      "▁visit": 2271,
      "▁upon": 2272,
      "▁enc": 2273,
      "▁common": 2274,
      "umn": 2275,
      "▁Acc": 2276,
      "ands": 2277,
      "ification": 2278,
      "▁viol": 2279,
      "▁Che": 2280,
      "ama": 2281,
      "anies": 2282,
      "▁false": 2283,
      "▁custom": 2284,
      "action": 2285,
      "▁position": 2286,
      "▁stop": 2287,
      "▁require": 2288,
      "▁II": 2289,
      "▁address": 2290,
      "oon": 2291,
      "ples": 2292,
      "▁==": 2293,
      "urg": 2294,
      "ibility": 2295,
      "rain": 2296,
      "uation": 2297,
      "▁create": 2298,
      "▁deter": 2299,
      "▁super": 2300,
      "iction": 2301,
      "▁career": 2302,
      "opy": 2303,
      "br": 2304,
      "rodu": 2305,
      "now": 2306,
      "Ar": 2307,
      "List": 2308,
      "▁half": 2309,
      "▁town": 2310,
      "▁ce": 2311,
      "▁begin": 2312,
      "IS": 2313,
      "▁learn": 2314,
      "▁La": 2315,
      "Cl": 2316,
      "irm": 2317,
      "ilities": 2318,
      "▁third": 2319,
      "▁respons": 2320,
      "ino": 2321,
      "ana": 2322,
      "▁discuss": 2323,
      "field": 2324,
      "▁subject": 2325,
      "▁Court": 2326,
      "▁general": 2327,
      "ille": 2328,
      "▁typ": 2329,
      "▁London": 2330,
      "▁announ": 2331,
      "▁international": 2332,
      "utes": 2333,
      "ald": 2334,
      "ED": 2335,
      "▁Sw": 2336,
      "▁tre": 2337,
      "▁parent": 2338,
      "rag": 2339,
      "ederal": 2340,
      "def": 2341,
      "▁further": 2342,
      "▁opportun": 2343,
      "fo": 2344,
      "▁ple": 2345,
      "▁Gener": 2346,
      "order": 2347,
      "▁benef": 2348,
      "fig": 2349,
      "ids": 2350,
      "selves": 2351,
      "▁review": 2352,
      "▁Mich": 2353,
      "ancial": 2354,
      "▁taken": 2355,
      "fl": 2356,
      "hing": 2357,
      "▁doing": 2358,
      "hold": 2359,
      "ibr": 2360,
      "ien": 2361,
      "▁Dis": 2362,
      "year": 2363,
      "▁Stud": 2364,
      "▁Law": 2365,
      "irt": 2366,
      "▁food": 2367,
      "gress": 2368,
      "▁cou": 2369,
      "ules": 2370,
      "apan": 2371,
      "▁yet": 2372,
      "▁previous": 2373,
      "▁official": 2374,
      "▁original": 2375,
      "▁action": 2376,
      "▁attack": 2377,
      "▁signific": 2378,
      "▁media": 2379,
      "▁William": 2380,
      "▁material": 2381,
      "▁While": 2382,
      "uf": 2383,
      "▁deal": 2384,
      "▁break": 2385,
      "▁mind": 2386,
      "▁)": 2387,
      "▁site": 2388,
      "._": 2389,
      "ological": 2390,
      "▁personal": 2391,
      "▁z": 2392,
      "EC": 2393,
      "▁agre": 2394,
      "▁Sm": 2395,
      "ett": 2396,
      "na": 2397,
      "▁press": 2398,
      "▁comb": 2399,
      "▁text": 2400,
      "ender": 2401,
      "▁played": 2402,
      "▁however": 2403,
      "▁himself": 2404,
      "▁father": 2405,
      "▁dou": 2406,
      "▁education": 2407,
      "▁face": 2408,
      "ume": 2409,
      "ided": 2410,
      "▁sound": 2411,
      "▁mor": 2412,
      "rench": 2413,
      "lected": 2414,
      "▁redu": 2415,
      "▁wind": 2416,
      "▁mot": 2417,
      "▁Associ": 2418,
      "▁From": 2419,
      "▁phys": 2420,
      "▁countries": 2421,
      "ceed": 2422,
      "\"><": 2423,
      "▁almost": 2424,
      "uk": 2425,
      "▁repl": 2426,
      "ends": 2427,
      "▁chall": 2428,
      "▁dest": 2429,
      "▁gen": 2430,
      "▁Ang": 2431,
      "ops": 2432,
      "▁Just": 2433,
      "▁recogn": 2434,
      "▁associ": 2435,
      "▁Tra": 2436,
      "AM": 2437,
      "▁dr": 2438,
      "ached": 2439,
      "▁makes": 2440,
      "ittee": 2441,
      "iddle": 2442,
      "▁published": 2443,
      "oor": 2444,
      "▁hon": 2445,
      "▁diff": 2446,
      "earch": 2447,
      "▁fall": 2448,
      "▁Phil": 2449,
      "▁mag": 2450,
      "rest": 2451,
      "atural": 2452,
      "▁particip": 2453,
      "▁asked": 2454,
      "aring": 2455,
      "▁effort": 2456,
      "▁industry": 2457,
      "eal": 2458,
      "AP": 2459,
      "▁Sch": 2460,
      "hib": 2461,
      "▁black": 2462,
      "▁rad": 2463,
      "▁Park": 2464,
      "\")": 2465,
      "▁See": 2466,
      "▁bring": 2467,
      "▁low": 2468,
      "aced": 2469,
      "ese": 2470,
      "▁vari": 2471,
      "▁College": 2472,
      "▁whole": 2473,
      "ari": 2474,
      "▁China": 2475,
      "▁meas": 2476,
      "▁environment": 2477,
      "▁released": 2478,
      "▁companies": 2479,
      "omin": 2480,
      "ava": 2481,
      "▁detail": 2482,
      "▁president": 2483,
      "▁Japan": 2484,
      "▁Ser": 2485,
      "atter": 2486,
      "▁ener": 2487,
      "bsite": 2488,
      "▁id": 2489,
      "▁birth": 2490,
      "istic": 2491,
      "abel": 2492,
      "lin": 2493,
      "▁ep": 2494,
      "▁x": 2495,
      "▁actually": 2496,
      "▁son": 2497,
      "▁content": 2498,
      "▁fav": 2499,
      "cast": 2500,
      "▁issues": 2501,
      "bar": 2502,
      "▁prob": 2503,
      "▁Calif": 2504,
      "date": 2505,
      "pecially": 2506,
      "▁various": 2507,
      "ades": 2508,
      "▁looking": 2509,
      "▁Department": 2510,
      "▁bit": 2511,
      "ummer": 2512,
      "sy": 2513,
      "cial": 2514,
      "▁space": 2515,
      "▁Some": 2516,
      "▁San": 2517,
      "▁believe": 2518,
      "▁host": 2519,
      "clus": 2520,
      "▁heart": 2521,
      "▁jud": 2522,
      "▁Don": 2523,
      "▁either": 2524,
      "▁rather": 2525,
      "▁Center": 2526,
      "▁necess": 2527,
      "▁Mon": 2528,
      "ford": 2529,
      "roups": 2530,
      "atures": 2531,
      "▁Fin": 2532,
      "▁respect": 2533,
      "----------------": 2534,
      "icult": 2535,
      "string": 2536,
      "▁Sen": 2537,
      "raft": 2538,
      "▁policy": 2539,
      "ET": 2540,
      "▁ap": 2541,
      "▁links": 2542,
      "▁suff": 2543,
      "▁events": 2544,
      "▁lo": 2545,
      "▁ago": 2546,
      "▁http": 2547,
      "book": 2548,
      "▁High": 2549,
      "▁mother": 2550,
      "▁op": 2551,
      "▁aud": 2552,
      "asing": 2553,
      "▁dri": 2554,
      "joy": 2555,
      "▁histor": 2556,
      "▁sugg": 2557,
      "▁above": 2558,
      "▁century": 2559,
      "▁doesn": 2560,
      "▁deg": 2561,
      "rance": 2562,
      "▁entire": 2563,
      "▁ground": 2564,
      "▁worked": 2565,
      "▁games": 2566,
      "▁coll": 2567,
      "▁Ear": 2568,
      "chie": 2569,
      "▁news": 2570,
      "ornia": 2571,
      "▁office": 2572,
      "ental": 2573,
      "▁provided": 2574,
      "▁Health": 2575,
      "▁br": 2576,
      "▁total": 2577,
      "▁circ": 2578,
      "▁Dist": 2579,
      "load": 2580,
      "▁party": 2581,
      "atory": 2582,
      "▁Dem": 2583,
      "rug": 2584,
      "▁pers": 2585,
      "▁Direct": 2586,
      "ae": 2587,
      "▁amount": 2588,
      "▁close": 2589,
      "▁...": 2590,
      "▁similar": 2591,
      "bject": 2592,
      "▁property": 2593,
      "▁focus": 2594,
      "ocr": 2595,
      "▁football": 2596,
      "ography": 2597,
      "▁David": 2598,
      "▁led": 2599,
      "▁miss": 2600,
      "orge": 2601,
      "▁late": 2602,
      "estern": 2603,
      "attle": 2604,
      "▁rev": 2605,
      "oe": 2606,
      "▁according": 2607,
      "eed": 2608,
      "▁Wash": 2609,
      "▁living": 2610,
      "ession": 2611,
      "▁decl": 2612,
      "▁military": 2613,
      "▁French": 2614,
      "▁created": 2615,
      "mb": 2616,
      "aching": 2617,
      "▁hours": 2618,
      "ION": 2619,
      "▁European": 2620,
      "▁significant": 2621,
      "▁areas": 2622,
      "uments": 2623,
      "RO": 2624,
      "▁More": 2625,
      "▁saw": 2626,
      "useum": 2627,
      "▁front": 2628,
      "▁built": 2629,
      "aign": 2630,
      "▁prim": 2631,
      "▁hom": 2632,
      "▁California": 2633,
      "ication": 2634,
      "▁wanted": 2635,
      "mp": 2636,
      "▁version": 2637,
      "▁sex": 2638,
      "inter": 2639,
      "▁required": 2640,
      "bor": 2641,
      "▁comes": 2642,
      "▁problem": 2643,
      "▁accept": 2644,
      "▁regard": 2645,
      "utions": 2646,
      "▁Ac": 2647,
      "▁/*": 2648,
      "▁compl": 2649,
      "▁needs": 2650,
      "ael": 2651,
      "▁written": 2652,
      "▁target": 2653,
      ".)": 2654,
      "unction": 2655,
      "▁mer": 2656,
      "▁imm": 2657,
      "quest": 2658,
      "rael": 2659,
      "▁behind": 2660,
      "▁cell": 2661,
      "▁bar": 2662,
      "▁que": 2663,
      "▁First": 2664,
      "inary": 2665,
      "▁https": 2666,
      "▁step": 2667,
      "▁friends": 2668,
      "itch": 2669,
      "▁relig": 2670,
      "uel": 2671,
      "▁energy": 2672,
      "ledge": 2673,
      "▁Ret": 2674,
      "▁issue": 2675,
      "▁continue": 2676,
      "▁India": 2677,
      "▁share": 2678,
      "igation": 2679,
      "▁global": 2680,
      "▁Hol": 2681,
      "▁idea": 2682,
      "▁relationship": 2683,
      "▁Pat": 2684,
      "ector": 2685,
      "▁impact": 2686,
      "▁Republic": 2687,
      "▁grad": 2688,
      "ridge": 2689,
      "▁population": 2690,
      "ude": 2691,
      "▁ens": 2692,
      "********": 2693,
      "ci": 2694,
      "▁ill": 2695,
      "▁taking": 2696,
      "oke": 2697,
      "▁abs": 2698,
      "▁static": 2699,
      "▁Post": 2700,
      "▁CO": 2701,
      "▁TH": 2702,
      "ires": 2703,
      "▁influ": 2704,
      "▁expect": 2705,
      "▁sat": 2706,
      "▁log": 2707,
      "▁base": 2708,
      "▁famil": 2709,
      "▁sold": 2710,
      "▁Mark": 2711,
      "aving": 2712,
      "▁Washington": 2713,
      "▁concern": 2714,
      "▁neg": 2715,
      "ogle": 2716,
      "▁Instit": 2717,
      "▁style": 2718,
      "////": 2719,
      "▁included": 2720,
      "▁arch": 2721,
      "▁check": 2722,
      "▁white": 2723,
      "▁string": 2724,
      "▁results": 2725,
      "▁cut": 2726,
      "cover": 2727,
      "▁nothing": 2728,
      "dom": 2729,
      "ux": 2730,
      "anks": 2731,
      "sequ": 2732,
      "▁especially": 2733,
      "▁fig": 2734,
      "atives": 2735,
      "▁words": 2736,
      "▁difficult": 2737,
      "▁size": 2738,
      "▁model": 2739,
      "▁woman": 2740,
      "ees": 2741,
      "▁cases": 2742,
      "▁Fil": 2743,
      "▁fire": 2744,
      "ica": 2745,
      "▁News": 2746,
      "▁enjoy": 2747,
      "▁served": 2748,
      "ager": 2749,
      "iting": 2750,
      "unch": 2751,
      "▁Indian": 2752,
      "ites": 2753,
      "▁popular": 2754,
      "▁anim": 2755,
      "▁Black": 2756,
      "▁production": 2757,
      "▁contract": 2758,
      "ips": 2759,
      "▁History": 2760,
      "▁anything": 2761,
      "oved": 2762,
      "elling": 2763,
      "▁walk": 2764,
      "▁request": 2765,
      "▁East": 2766,
      "▁matter": 2767,
      "ening": 2768,
      "Value": 2769,
      "medi": 2770,
      "Wh": 2771,
      "▁itself": 2772,
      "▁UK": 2773,
      "▁clos": 2774,
      "▁Paul": 2775,
      "▁Church": 2776,
      "▁sett": 2777,
      "▁Council": 2778,
      "rim": 2779,
      "\");": 2780,
      "▁technology": 2781,
      "▁online": 2782,
      "▁document": 2783,
      "▁Pal": 2784,
      "iple": 2785,
      "▁video": 2786,
      "rought": 2787,
      "▁Air": 2788,
      "▁Our": 2789,
      "▁named": 2790,
      "▁born": 2791,
      "ctor": 2792,
      "▁James": 2793,
      "▁cred": 2794,
      "▁section": 2795,
      "▁attempt": 2796,
      "▁pain": 2797,
      "▁vict": 2798,
      "▁Now": 2799,
      "▁stre": 2800,
      "▁refer": 2801,
      "ensive": 2802,
      "▁Trans": 2803,
      "▁General": 2804,
      "▁board": 2805,
      "ems": 2806,
      "ension": 2807,
      "▁div": 2808,
      "▁propos": 2809,
      "▁quick": 2810,
      "▁Cong": 2811,
      "▁decision": 2812,
      "pped": 2813,
      "▁website": 2814,
      "ampions": 2815,
      "roid": 2816,
      "ams": 2817,
      "data": 2818,
      "▁road": 2819,
      "▁added": 2820,
      "▁file": 2821,
      "body": 2822,
      "▁range": 2823,
      "rote": 2824,
      "▁band": 2825,
      "▁answ": 2826,
      "cle": 2827,
      "▁likely": 2828,
      "▁financial": 2829,
      "ky": 2830,
      "▁themselves": 2831,
      "To": 2832,
      "LL": 2833,
      "urb": 2834,
      "▁getting": 2835,
      "▁pack": 2836,
      "▁Commun": 2837,
      "▁police": 2838,
      "ribute": 2839,
      "hood": 2840,
      "▁economic": 2841,
      "itional": 2842,
      "script": 2843,
      "rab": 2844,
      "▁Israel": 2845,
      "men": 2846,
      "▁groups": 2847,
      "▁recent": 2848,
      "▁///": 2849,
      "▁died": 2850,
      "▁Rober": 2851,
      "icles": 2852,
      "▁shows": 2853,
      "aker": 2854,
      "▁assist": 2855,
      "text": 2856,
      "verage": 2857,
      "▁girl": 2858,
      "▁Mor": 2859,
      "▁Canada": 2860,
      "▁security": 2861,
      "uge": 2862,
      "iences": 2863,
      "raw": 2864,
      "▁cal": 2865,
      "▁legal": 2866,
      "unt": 2867,
      "aries": 2868,
      "coming": 2869,
      "ico": 2870,
      "icated": 2871,
      "▁performance": 2872,
      "Data": 2873,
      "ises": 2874,
      "▁bi": 2875,
      "airs": 2876,
      "ummary": 2877,
      "rown": 2878,
      "rie": 2879,
      "▁achie": 2880,
      "▁lost": 2881,
      "▁travel": 2882,
      "Col": 2883,
      "▁Trump": 2884,
      "▁writing": 2885,
      "enc": 2886,
      "▁pie": 2887,
      "▁established": 2888,
      "ption": 2889,
      "CO": 2890,
      "));": 2891,
      "▁Ital": 2892,
      "▁Inter": 2893,
      "▁moment": 2894,
      "ught": 2895,
      "▁Jew": 2896,
      "▁terms": 2897,
      "▁engine": 2898,
      ".[": 2899,
      "oud": 2900,
      "▁instit": 2901,
      "yd": 2902,
      "▁sym": 2903,
      "▁points": 2904,
      "▁cannot": 2905,
      "▁insp": 2906,
      "▁reported": 2907,
      "▁path": 2908,
      "▁soon": 2909,
      "▁date": 2910,
      "▁outside": 2911,
      "▁Of": 2912,
      "▁sense": 2913,
      "▁language": 2914,
      "▁Prof": 2915,
      "▁Cons": 2916,
      "▁coming": 2917,
      "▁%": 2918,
      "▁introdu": 2919,
      "▁evidence": 2920,
      "▁lives": 2921,
      "▁states": 2922,
      "▁Pre": 2923,
      "▁page": 2924,
      "isions": 2925,
      "▁stay": 2926,
      "▁exam": 2927,
      "▁ten": 2928,
      "ospital": 2929,
      "idth": 2930,
      "UR": 2931,
      "▁Je": 2932,
      "nes": 2933,
      "▁People": 2934,
      "▁everything": 2935,
      "],": 2936,
      "value": 2937,
      "fully": 2938,
      "▁red": 2939,
      "room": 2940,
      "▁forward": 2941,
      "▁broad": 2942,
      "nb": 2943,
      "▁mass": 2944,
      "▁ess": 2945,
      "▁vot": 2946,
      "▁quite": 2947,
      "▁books": 2948,
      "iber": 2949,
      "px": 2950,
      "ags": 2951,
      "▁minutes": 2952,
      "ply": 2953,
      "su": 2954,
      "▁nov": 2955,
      "▁response": 2956,
      "ha": 2957,
      "▁\\": 2958,
      "avy": 2959,
      "nov": 2960,
      "list": 2961,
      "▁someone": 2962,
      "oper": 2963,
      "rick": 2964,
      "etimes": 2965,
      "▁trying": 2966,
      "▁conduct": 2967,
      "util": 2968,
      "fect": 2969,
      "========": 2970,
      "lier": 2971,
      "ny": 2972,
      "▁management": 2973,
      "comp": 2974,
      "▁Ant": 2975,
      "▁Val": 2976,
      "▁Ber": 2977,
      "▁Rich": 2978,
      "▁administ": 2979,
      "ully": 2980,
      "▁training": 2981,
      "▁Int": 2982,
      "▁wrote": 2983,
      "sych": 2984,
      "▁Red": 2985,
      "▁beaut": 2986,
      "▁bad": 2987,
      "▁gave": 2988,
      "lements": 2989,
      "▁England": 2990,
      "▁products": 2991,
      "▁modern": 2992,
      "ING": 2993,
      "▁Net": 2994,
      "ysis": 2995,
      "▁dam": 2996,
      "▁considered": 2997,
      "▁Thom": 2998,
      "arter": 2999,
      "▁campaign": 3000,
      "uses": 3001,
      "].": 3002,
      "ores": 3003,
      "▁needed": 3004,
      "eks": 3005,
      "▁changes": 3006,
      "▁fight": 3007,
      "US": 3008,
      "ables": 3009,
      "▁cle": 3010,
      "▁involved": 3011,
      "▁George": 3012,
      "▁staff": 3013,
      "▁sus": 3014,
      "ying": 3015,
      "▁table": 3016,
      "▁located": 3017,
      "tain": 3018,
      "▁ste": 3019,
      "▁article": 3020,
      "▁region": 3021,
      "▁risk": 3022,
      "▁feature": 3023,
      "▁Ne": 3024,
      "ords": 3025,
      "cks": 3026,
      "▁whose": 3027,
      "ging": 3028,
      "levision": 3029,
      "lim": 3030,
      "▁Sim": 3031,
      "izing": 3032,
      "▁inj": 3033,
      "iles": 3034,
      "▁accom": 3035,
      "▁director": 3036,
      "▁Ste": 3037,
      "mit": 3038,
      "duc": 3039,
      "pite": 3040,
      "▁civil": 3041,
      "aves": 3042,
      "▁hot": 3043,
      "dis": 3044,
      "▁Association": 3045,
      "aur": 3046,
      "bt": 3047,
      "ocal": 3048,
      "ounter": 3049,
      "▁sil": 3050,
      "▁quality": 3051,
      "▁watch": 3052,
      "ara": 3053,
      "▁capital": 3054,
      "▁vill": 3055,
      "oul": 3056,
      "▁Street": 3057,
      "▁External": 3058,
      "▁award": 3059,
      "pose": 3060,
      "▁moved": 3061,
      "▁club": 3062,
      "▁round": 3063,
      "omb": 3064,
      "asons": 3065,
      "rel": 3066,
      "▁probably": 3067,
      "▁Arch": 3068,
      "pper": 3069,
      "▁tour": 3070,
      "irit": 3071,
      "▁dig": 3072,
      "BC": 3073,
      "▁Br": 3074,
      "▁System": 3075,
      "];": 3076,
      "▁Jack": 3077,
      "▁includes": 3078,
      "▁knew": 3079,
      "AD": 3080,
      "location": 3081,
      "▁cho": 3082,
      "anger": 3083,
      "light": 3084,
      "itiz": 3085,
      "▁&&": 3086,
      "istry": 3087,
      "▁During": 3088,
      "icro": 3089,
      "ida": 3090,
      "▁String": 3091,
      "▁According": 3092,
      "▁deep": 3093,
      "wood": 3094,
      "▁natural": 3095,
      "▁brought": 3096,
      "ners": 3097,
      "▁source": 3098,
      "▁currently": 3099,
      "▁Jer": 3100,
      "hel": 3101,
      "▁below": 3102,
      "▁suggest": 3103,
      "ressed": 3104,
      "Er": 3105,
      "aged": 3106,
      "ties": 3107,
      "▁increase": 3108,
      "based": 3109,
      "▁League": 3110,
      "olic": 3111,
      "▁Book": 3112,
      "▁fem": 3113,
      "▁Press": 3114,
      "icip": 3115,
      "ements": 3116,
      "▁throughout": 3117,
      "itting": 3118,
      "see": 3119,
      "▁release": 3120,
      "anced": 3121,
      "▁Company": 3122,
      "▁Gr": 3123,
      "▁Port": 3124,
      "ibrary": 3125,
      "ges": 3126,
      "ius": 3127,
      "net": 3128,
      "▁Public": 3129,
      "▁soft": 3130,
      "▁wife": 3131,
      "▁felt": 3132,
      "▁emer": 3133,
      "haps": 3134,
      "▁specific": 3135,
      "▁track": 3136,
      "▁Add": 3137,
      "▁films": 3138,
      "serv": 3139,
      "▁prior": 3140,
      "ander": 3141,
      "You": 3142,
      "▁fell": 3143,
      "rong": 3144,
      "▁announced": 3145,
      "▁princ": 3146,
      "▁Institute": 3147,
      "aughter": 3148,
      "onent": 3149,
      "Un": 3150,
      "vis": 3151,
      "▁ways": 3152,
      "($": 3153,
      "▁wond": 3154,
      "resp": 3155,
      "▁separ": 3156,
      "igned": 3157,
      "Exception": 3158,
      "▁Other": 3159,
      "▁Group": 3160,
      "▁seems": 3161,
      "ecutive": 3162,
      "ville": 3163,
      "▁expected": 3164,
      "nbsp": 3165,
      "▁Inc": 3166,
      "ayer": 3167,
      "▁hor": 3168,
      "▁Then": 3169,
      "▁medical": 3170,
      "lands": 3171,
      "arc": 3172,
      "▁stri": 3173,
      "▁contact": 3174,
      "ago": 3175,
      "ij": 3176,
      "▁Great": 3177,
      "▁comput": 3178,
      "▁Day": 3179,
      "atur": 3180,
      "▁longer": 3181,
      "▁stru": 3182,
      "▁leading": 3183,
      "▁professional": 3184,
      "▁throw": 3185,
      "▁Dan": 3186,
      "▁improve": 3187,
      "apter": 3188,
      "Get": 3189,
      "▁systems": 3190,
      ".'": 3191,
      "▁TV": 3192,
      "▁fa": 3193,
      "▁loss": 3194,
      "lam": 3195,
      "▁Ter": 3196,
      "▁Michael": 3197,
      "▁scient": 3198,
      "▁capt": 3199,
      "▁cele": 3200,
      "sec": 3201,
      "itar": 3202,
      "▁independ": 3203,
      "asc": 3204,
      "agement": 3205,
      "▁higher": 3206,
      "OT": 3207,
      "▁names": 3208,
      "▁Christian": 3209,
      "▁force": 3210,
      "▁Research": 3211,
      "cis": 3212,
      "▁Rec": 3213,
      "itation": 3214,
      "▁color": 3215,
      "▁ri": 3216,
      "test": 3217,
      "▁described": 3218,
      "▁Mary": 3219,
      "vey": 3220,
      "▁nation": 3221,
      "▁protect": 3222,
      "▁France": 3223,
      "▁dise": 3224,
      "oo": 3225,
      "down": 3226,
      "alls": 3227,
      "▁wasn": 3228,
      "▁weeks": 3229,
      "▁den": 3230,
      "▁threat": 3231,
      "▁Vol": 3232,
      "▁collect": 3233,
      "▁List": 3234,
      "atform": 3235,
      "met": 3236,
      "▁rate": 3237,
      "imately": 3238,
      "unk": 3239,
      "ado": 3240,
      "▁term": 3241,
      "rc": 3242,
      "▁tou": 3243,
      "▁boy": 3244,
      "▁White": 3245,
      "▁Educ": 3246,
      "oyal": 3247,
      "▁culture": 3248,
      "▁potential": 3249,
      "▁turned": 3250,
      "▁Found": 3251,
      "▁und": 3252,
      "umber": 3253,
      "ped": 3254,
      "odes": 3255,
      "idents": 3256,
      "nown": 3257,
      "amer": 3258,
      "▁Board": 3259,
      "▁Lou": 3260,
      "▁Australia": 3261,
      "▁practice": 3262,
      "▁provides": 3263,
      "▁meeting": 3264,
      "UT": 3265,
      "raz": 3266,
      "uration": 3267,
      "Sh": 3268,
      "▁nature": 3269,
      "▁Def": 3270,
      "Tr": 3271,
      "▁growth": 3272,
      "▁Bel": 3273,
      "▁movie": 3274,
      "▁appoint": 3275,
      "▁Mart": 3276,
      "▁continued": 3277,
      "▁society": 3278,
      "▁cross": 3279,
      "▁?": 3280,
      "▁takes": 3281,
      "▁player": 3282,
      "icon": 3283,
      "▁cand": 3284,
      "▁prevent": 3285,
      "▁Get": 3286,
      "▁leave": 3287,
      "▁liter": 3288,
      "writ": 3289,
      "▁District": 3290,
      "▁questions": 3291,
      "▁playing": 3292,
      "▁!=": 3293,
      "▁Up": 3294,
      "▁eyes": 3295,
      "▁cause": 3296,
      "▁church": 3297,
      "path": 3298,
      "ampionship": 3299,
      "▁govern": 3300,
      "▁hous": 3301,
      "▁problems": 3302,
      "▁origin": 3303,
      "▁interview": 3304,
      "▁pret": 3305,
      "▁norm": 3306,
      "▁mid": 3307,
      "ols": 3308,
      "atus": 3309,
      "▁hope": 3310,
      "▁assert": 3311,
      "▁establish": 3312,
      "rect": 3313,
      "▁student": 3314,
      "▁related": 3315,
      "▁network": 3316,
      "▁Mem": 3317,
      "iment": 3318,
      "▁block": 3319,
      "osition": 3320,
      "▁recently": 3321,
      "▁Year": 3322,
      "▁IN": 3323,
      "▁print": 3324,
      "ufact": 3325,
      "eared": 3326,
      "▁schools": 3327,
      "▁conditions": 3328,
      "▁purch": 3329,
      "mission": 3330,
      "▁immedi": 3331,
      "▁Congress": 3332,
      "▁emb": 3333,
      "▁Government": 3334,
      "top": 3335,
      "init": 3336,
      "mon": 3337,
      "▁knowledge": 3338,
      "ENT": 3339,
      "IM": 3340,
      "▁wait": 3341,
      "▁parents": 3342,
      "▁acqu": 3343,
      "().": 3344,
      "ming": 3345,
      "▁developed": 3346,
      "Object": 3347,
      "▁hands": 3348,
      "▁Commission": 3349,
      "▁mix": 3350,
      "')": 3351,
      "▁pick": 3352,
      "▁Mod": 3353,
      "log": 3354,
      "born": 3355,
      "▁teac": 3356,
      "file": 3357,
      "▁everyone": 3358,
      "itect": 3359,
      "mitted": 3360,
      "▁heard": 3361,
      "▁simply": 3362,
      "▁org": 3363,
      "▁dead": 3364,
      "Ind": 3365,
      "▁science": 3366,
      "▁integ": 3367,
      "▁draw": 3368,
      "▁pict": 3369,
      "▁Tex": 3370,
      "▁ver": 3371,
      "arily": 3372,
      "▁instead": 3373,
      "▁complete": 3374,
      "▁Mag": 3375,
      "................": 3376,
      "▁drug": 3377,
      "▁Africa": 3378,
      "▁brother": 3379,
      "▁search": 3380,
      "▁determin": 3381,
      "lor": 3382,
      "▁link": 3383,
      "▁consum": 3384,
      "come": 3385,
      "▁Music": 3386,
      "▁hit": 3387,
      "ivity": 3388,
      "▁features": 3389,
      "▁necessary": 3390,
      "▁opportunity": 3391,
      "▁mis": 3392,
      "▁match": 3393,
      "▁programs": 3394,
      "▁squ": 3395,
      "▁implement": 3396,
      "size": 3397,
      "▁hop": 3398,
      "▁Union": 3399,
      "iance": 3400,
      "▁Hall": 3401,
      "▁Robert": 3402,
      "▁average": 3403,
      "erc": 3404,
      "▁remember": 3405,
      "▁federal": 3406,
      "yond": 3407,
      "▁speak": 3408,
      "ications": 3409,
      "iers": 3410,
      "▁serious": 3411,
      "color": 3412,
      "▁bank": 3413,
      "band": 3414,
      "▁regular": 3415,
      "▁Miss": 3416,
      "rack": 3417,
      "acc": 3418,
      "▁dom": 3419,
      "▁looked": 3420,
      "iqu": 3421,
      "link": 3422,
      "inese": 3423,
      "▁context": 3424,
      "equ": 3425,
      "▁easy": 3426,
      "▁treatment": 3427,
      "▁station": 3428,
      "alled": 3429,
      "undred": 3430,
      "perty": 3431,
      "▁Mil": 3432,
      "▁Most": 3433,
      "▁code": 3434,
      "ston": 3435,
      "());": 3436,
      "▁sort": 3437,
      "▁Committee": 3438,
      "▁saying": 3439,
      "iation": 3440,
      "▁Ob": 3441,
      "aily": 3442,
      "▁recomm": 3443,
      "ribution": 3444,
      "uate": 3445,
      "▁arriv": 3446,
      "▁Mus": 3447,
      "▁Sub": 3448,
      "▁River": 3449,
      "▁favor": 3450,
      "▁challeng": 3451,
      "▁Party": 3452,
      "▁Green": 3453,
      "▁Ben": 3454,
      "▁THE": 3455,
      "▁stage": 3456,
      "▁activities": 3457,
      "rian": 3458,
      "▁conv": 3459,
      "▁lower": 3460,
      "▁occur": 3461,
      "istan": 3462,
      "arning": 3463,
      "▁mus": 3464,
      "▁Over": 3465,
      "▁isn": 3466,
      "pace": 3467,
      "▁star": 3468,
      "DE": 3469,
      "▁Ann": 3470,
      "▁billion": 3471,
      "pri": 3472,
      "http": 3473,
      "ulations": 3474,
      "hem": 3475,
      "▁approach": 3476,
      "index": 3477,
      "▁eight": 3478,
      "atal": 3479,
      "▁Are": 3480,
      "illing": 3481,
      "bert": 3482,
      "▁running": 3483,
      "▁Angel": 3484,
      "▁Mal": 3485,
      "ares": 3486,
      "enty": 3487,
      "comes": 3488,
      "const": 3489,
      "▁African": 3490,
      "▁organization": 3491,
      "▁Tw": 3492,
      "▁election": 3493,
      "icient": 3494,
      "▁foreign": 3495,
      "▁Ev": 3496,
      "▁constit": 3497,
      "▁Tom": 3498,
      "IG": 3499,
      "▁decided": 3500,
      "▁trade": 3501,
      "CC": 3502,
      "▁Here": 3503,
      "eters": 3504,
      "▁surv": 3505,
      "ctions": 3506,
      "▁du": 3507,
      "▁gra": 3508,
      "▁user": 3509,
      "oring": 3510,
      "▁north": 3511,
      "▁patients": 3512,
      "state": 3513,
      "▁Mex": 3514,
      "▁center": 3515,
      "semb": 3516,
      "▁sens": 3517,
      "▁produced": 3518,
      "force": 3519,
      "lying": 3520,
      "ternet": 3521,
      "bit": 3522,
      "▁oil": 3523,
      "▁Germany": 3524,
      "▁mention": 3525,
      "url": 3526,
      "Set": 3527,
      "ned": 3528,
      "▁•": 3529,
      "▁Science": 3530,
      "board": 3531,
      "\";": 3532,
      "▁additional": 3533,
      "imum": 3534,
      "rast": 3535,
      "▁Bill": 3536,
      "▁reading": 3537,
      "▁qual": 3538,
      "rated": 3539,
      "Class": 3540,
      "but": 3541,
      "▁Que": 3542,
      "▁Home": 3543,
      "▁comment": 3544,
      "▁via": 3545,
      "▁Award": 3546,
      "▁Since": 3547,
      "▁contribut": 3548,
      "▁Sam": 3549,
      "▁organiz": 3550,
      "urt": 3551,
      "▁race": 3552,
      "▁degree": 3553,
      "rame": 3554,
      "▁sen": 3555,
      "▁message": 3556,
      "outhern": 3557,
      "▁options": 3558,
      "▁grand": 3559,
      "mark": 3560,
      "He": 3561,
      "nav": 3562,
      "▁paper": 3563,
      "▁Director": 3564,
      "▁returned": 3565,
      "aging": 3566,
      "Error": 3567,
      "like": 3568,
      "▁species": 3569,
      "▁Div": 3570,
      "roy": 3571,
      "▁Leg": 3572,
      "▁image": 3573,
      "itz": 3574,
      "mercial": 3575,
      "stance": 3576,
      "ech": 3577,
      "iful": 3578,
      "▁cast": 3579,
      "▁Chinese": 3580,
      "▁stories": 3581,
      "het": 3582,
      "▁perfect": 3583,
      "gen": 3584,
      "▁complex": 3585,
      "▁designed": 3586,
      "▁tal": 3587,
      "▁cy": 3588,
      "▁rock": 3589,
      "▁Out": 3590,
      "erve": 3591,
      "gl": 3592,
      "▁application": 3593,
      "▁movement": 3594,
      "rief": 3595,
      "sk": 3596,
      "rial": 3597,
      "where": 3598,
      "▁followed": 3599,
      "▁passed": 3600,
      "▁worth": 3601,
      "ui": 3602,
      "▁lack": 3603,
      "▁Rel": 3604,
      "▁thous": 3605,
      "do": 3606,
      "▁projects": 3607,
      "▁neigh": 3608,
      "Mod": 3609,
      "▁families": 3610,
      "['": 3611,
      "View": 3612,
      "▁Vir": 3613,
      "▁Although": 3614,
      "▁Democr": 3615,
      "▁beginning": 3616,
      "▁rout": 3617,
      "▁largest": 3618,
      "▁Texas": 3619,
      "▁parts": 3620,
      "▁veh": 3621,
      "js": 3622,
      "▁background": 3623,
      "▁attention": 3624,
      "▁price": 3625,
      "astic": 3626,
      "▁Society": 3627,
      "▁Techn": 3628,
      "▁blood": 3629,
      "oken": 3630,
      "change": 3631,
      "En": 3632,
      "▁goal": 3633,
      "oom": 3634,
      "▁reve": 3635,
      "▁although": 3636,
      "▁pred": 3637,
      "▁Even": 3638,
      "▁spent": 3639,
      "▁nearly": 3640,
      "\":": 3641,
      "▁television": 3642,
      "\"></": 3643,
      "▁door": 3644,
      "▁consist": 3645,
      "▁Alex": 3646,
      "ottom": 3647,
      "▁towards": 3648,
      "▁Your": 3649,
      "urance": 3650,
      "▁usually": 3651,
      "▁Sy": 3652,
      "▁deliver": 3653,
      "▁prep": 3654,
      "▁promot": 3655,
      "▁voice": 3656,
      "▁citiz": 3657,
      "place": 3658,
      "▁particularly": 3659,
      "resh": 3660,
      "▁surpr": 3661,
      "▁resources": 3662,
      "berg": 3663,
      "▁collection": 3664,
      "return": 3665,
      "ulated": 3666,
      "▁charg": 3667,
      "▁south": 3668,
      "itter": 3669,
      "▁err": 3670,
      "▁situation": 3671,
      "▁except": 3672,
      "▁Class": 3673,
      "▁tru": 3674,
      "owers": 3675,
      "fort": 3676,
      "▁Sing": 3677,
      "▁hear": 3678,
      "▁statement": 3679,
      "pan": 3680,
      "▁Flor": 3681,
      "osing": 3682,
      "▁fair": 3683,
      "Par": 3684,
      "ria": 3685,
      "UN": 3686,
      "▁hum": 3687,
      "IL": 3688,
      "lease": 3689,
      "Test": 3690,
      "orthern": 3691,
      "reme": 3692,
      "uty": 3693,
      "lied": 3694,
      "oto": 3695,
      "▁Develop": 3696,
      "▁Service": 3697,
      "▁allowed": 3698,
      "isc": 3699,
      "▁Museum": 3700,
      "▁status": 3701,
      ".</": 3702,
      "ken": 3703,
      "▁Minister": 3704,
      "▁workers": 3705,
      "▁},": 3706,
      "cretary": 3707,
      "▁inside": 3708,
      "▁write": 3709,
      "▁hundred": 3710,
      "▁^": 3711,
      "edy": 3712,
      "part": 3713,
      "▁dark": 3714,
      "▁Thomas": 3715,
      "▁sometimes": 3716,
      "Im": 3717,
      "Se": 3718,
      "OS": 3719,
      "atest": 3720,
      "▁extra": 3721,
      "▁lic": 3722,
      "edom": 3723,
      "▁successful": 3724,
      "”.": 3725,
      "▁discover": 3726,
      "▁Education": 3727,
      "abled": 3728,
      "CH": 3729,
      "▁pan": 3730,
      "▁Ke": 3731,
      "▁Under": 3732,
      "▁earlier": 3733,
      "▁plans": 3734,
      "▁changed": 3735,
      "▁places": 3736,
      "▁opened": 3737,
      "vest": 3738,
      "▁bur": 3739,
      "▁legis": 3740,
      "CT": 3741,
      "▁ensure": 3742,
      "▁nar": 3743,
      "▁connect": 3744,
      "▁Pri": 3745,
      "Man": 3746,
      "▁Well": 3747,
      "▁Spec": 3748,
      "▁Russian": 3749,
      "▁wrong": 3750,
      "aches": 3751,
      "▁Hen": 3752,
      "▁simple": 3753,
      "iring": 3754,
      "▁Gold": 3755,
      "▁Profess": 3756,
      "▁Women": 3757,
      "▁Read": 3758,
      "IP": 3759,
      "▁brand": 3760,
      "istics": 3761,
      "▁seven": 3762,
      "▁district": 3763,
      "▁Academ": 3764,
      "▁manufact": 3765,
      "lo": 3766,
      "la": 3767,
      "zz": 3768,
      "▁candid": 3769,
      "ya": 3770,
      "▁summer": 3771,
      "FF": 3772,
      "wor": 3773,
      "▁display": 3774,
      "▁progress": 3775,
      "▁AN": 3776,
      "▁Mac": 3777,
      "▁Fore": 3778,
      "▁studies": 3779,
      "ellig": 3780,
      "▁journal": 3781,
      "▁behav": 3782,
      "icial": 3783,
      "▁ability": 3784,
      "▁demon": 3785,
      "hest": 3786,
      "▁box": 3787,
      "icate": 3788,
      "▁anyone": 3789,
      "▁IS": 3790,
      "▁Journal": 3791,
      "annel": 3792,
      "▁exact": 3793,
      "▁bed": 3794,
      "▁novel": 3795,
      "▁error": 3796,
      "▁Many": 3797,
      "▁Met": 3798,
      "includ": 3799,
      "point": 3800,
      "▁copy": 3801,
      "▁receive": 3802,
      "▁Cath": 3803,
      "▁Best": 3804,
      "▁Sund": 3805,
      "vention": 3806,
      "▁joined": 3807,
      "▁Inst": 3808,
      "mar": 3809,
      "chan": 3810,
      "efore": 3811,
      "▁screen": 3812,
      "▁couple": 3813,
      "aled": 3814,
      "▁respond": 3815,
      "▁driv": 3816,
      "▁unique": 3817,
      "▁values": 3818,
      "▁der": 3819,
      "▁Roman": 3820,
      "▁Let": 3821,
      "▁standard": 3822,
      "Is": 3823,
      "▁mur": 3824,
      "▁UN": 3825,
      "▁buy": 3826,
      "▁trust": 3827,
      "');": 3828,
      "▁Smith": 3829,
      "▁Super": 3830,
      "estival": 3831,
      "▁plant": 3832,
      "fin": 3833,
      "▁meaning": 3834,
      "venue": 3835,
      "range": 3836,
      "ously": 3837,
      "▁Sal": 3838,
      "▁};": 3839,
      "▁});": 3840,
      "king": 3841,
      "▁morning": 3842,
      "▁killed": 3843,
      "sey": 3844,
      "rang": 3845,
      "▁individuals": 3846,
      "▁encou": 3847,
      "iding": 3848,
      "porary": 3849,
      "▁sec": 3850,
      "Comp": 3851,
      "▁Life": 3852,
      "▁active": 3853,
      "▁Business": 3854,
      "▁mach": 3855,
      "rey": 3856,
      "▁concept": 3857,
      "▁mount": 3858,
      "▁border": 3859,
      "▁epis": 3860,
      "wise": 3861,
      "!--": 3862,
      "▁Russia": 3863,
      "▁peace": 3864,
      "▁Francis": 3865,
      "lymp": 3866,
      "des": 3867,
      "encies": 3868,
      "▁Carol": 3869,
      "(),": 3870,
      "▁whom": 3871,
      "▁Scott": 3872,
      "▁grant": 3873,
      "▁Tur": 3874,
      "▁Program": 3875,
      "▁ord": 3876,
      "▁Office": 3877,
      "▁imag": 3878,
      "▁learning": 3879,
      "EL": 3880,
      "reek": 3881,
      "▁college": 3882,
      "acity": 3883,
      "=\"../../": 3884,
      "obile": 3885,
      "▁purpose": 3886,
      "ios": 3887,
      "▁Every": 3888,
      "▁pretty": 3889,
      "▁quickly": 3890,
      "▁prem": 3891,
      "ero": 3892,
      "▁observ": 3893,
      "▁max": 3894,
      "▁sn": 3895,
      "with": 3896,
      "▁Army": 3897,
      "▁Jud": 3898,
      "▁increased": 3899,
      "▁levels": 3900,
      "▁offers": 3901,
      "olf": 3902,
      "As": 3903,
      "▁Peter": 3904,
      "▁Att": 3905,
      "▁beyond": 3906,
      "▁clean": 3907,
      "▁streng": 3908,
      "▁instance": 3909,
      "ults": 3910,
      "Key": 3911,
      "ota": 3912,
      "rupt": 3913,
      "▁demand": 3914,
      "▁Del": 3915,
      "summary": 3916,
      "Time": 3917,
      "▁efforts": 3918,
      "▁forces": 3919,
      "▁il": 3920,
      "▁construction": 3921,
      "▁Kore": 3922,
      "▁goes": 3923,
      "▁sch": 3924,
      "▁increasing": 3925,
      "▁sal": 3926,
      "▁limited": 3927,
      "▁pen": 3928,
      "▁remain": 3929,
      "▁leaders": 3930,
      "ii": 3931,
      "▁communities": 3932,
      "uing": 3933,
      "▁Olymp": 3934,
      "▁poor": 3935,
      "▁Mad": 3936,
      "By": 3937,
      "AG": 3938,
      "▁Bre": 3939,
      "▁Jes": 3940,
      "▁purs": 3941,
      "ims": 3942,
      "▁celebr": 3943,
      "miss": 3944,
      "rative": 3945,
      "▁Richard": 3946,
      "▁multiple": 3947,
      "▁Why": 3948,
      "▁Social": 3949,
      "lock": 3950,
      "▁park": 3951,
      "enge": 3952,
      "more": 3953,
      "▁characters": 3954,
      "▁appeared": 3955,
      "▁platform": 3956,
      "pport": 3957,
      "▁ball": 3958,
      "▁Rev": 3959,
      "▁gold": 3960,
      "ishing": 3961,
      "II": 3962,
      "▁Rob": 3963,
      "']": 3964,
      "▁command": 3965,
      "▁bal": 3966,
      "▁Western": 3967,
      "cher": 3968,
      "century": 3969,
      "▁dro": 3970,
      "TR": 3971,
      "▁Bank": 3972,
      "This": 3973,
      "IV": 3974,
      "▁lay": 3975,
      "▁Chic": 3976,
      "bon": 3977,
      "no": 3978,
      "▁Wil": 3979,
      "=\"+": 3980,
      "▁firm": 3981,
      "▁corpor": 3982,
      "ocks": 3983,
      "▁leader": 3984,
      "itness": 3985,
      "ranch": 3986,
      "▁Tod": 3987,
      "▁songs": 3988,
      "▁anti": 3989,
      "▁ded": 3990,
      "▁strugg": 3991,
      "▁married": 3992,
      "File": 3993,
      "▁gun": 3994,
      "▁Serv": 3995,
      "igr": 3996,
      "▁rules": 3997,
      "▁Ir": 3998,
      "▁sem": 3999,
      "▁prison": 4000,
      "amily": 4001,
      "▁analysis": 4002,
      "▁spirit": 4003,
      "▁Louis": 4004,
      "An": 4005,
      "▁Mer": 4006,
      "ania": 4007,
      "https": 4008,
      "▁avoid": 4009,
      "▁carry": 4010,
      "▁finally": 4011,
      "▁Sur": 4012,
      "ka": 4013,
      "ecause": 4014,
      "▁|-": 4015,
      "▁Work": 4016,
      "▁sle": 4017,
      "▁esc": 4018,
      "▁Central": 4019,
      "▁directly": 4020,
      "udd": 4021,
      "wide": 4022,
      "Sc": 4023,
      "And": 4024,
      "▁teams": 4025,
      "▁Frank": 4026,
      "lt": 4027,
      "▁middle": 4028,
      "▁psych": 4029,
      "▁Mount": 4030,
      "▁Nor": 4031,
      "▁associated": 4032,
      "▁Times": 4033,
      "▁daughter": 4034,
      "▁default": 4035,
      "▁exhib": 4036,
      "quot": 4037,
      "▁safety": 4038,
      "agn": 4039,
      "▁Virgin": 4040,
      "▁wide": 4041,
      "▁income": 4042,
      "iled": 4043,
      "▁Review": 4044,
      "▁disease": 4045,
      "▁costs": 4046,
      "▁Two": 4047,
      "ona": 4048,
      "▁feet": 4049,
      "sub": 4050,
      "▁religious": 4051,
      "ulture": 4052,
      "liament": 4053,
      "▁alone": 4054,
      "▁paid": 4055,
      "cription": 4056,
      "ainer": 4057,
      "▁fast": 4058,
      "just": 4059,
      "rage": 4060,
      "▁happened": 4061,
      "iller": 4062,
      "▁virt": 4063,
      "▁Us": 4064,
      "AB": 4065,
      "____": 4066,
      "No": 4067,
      "▁economy": 4068,
      "▁basis": 4069,
      "▁physical": 4070,
      "▁Club": 4071,
      "▁hol": 4072,
      "▁Er": 4073,
      "▁/>": 4074,
      "New": 4075,
      "▁operations": 4076,
      "▁farm": 4077,
      "Int": 4078,
      "▁length": 4079,
      "▁Cup": 4080,
      "▁growing": 4081,
      "▁frequ": 4082,
      "▁details": 4083,
      "▁completed": 4084,
      "▁Ham": 4085,
      "▁Child": 4086,
      "ada": 4087,
      "EO": 4088,
      "':": 4089,
      "▁inform": 4090,
      "▁Jose": 4091,
      "mas": 4092,
      "▁academ": 4093,
      "▁fear": 4094,
      "known": 4095,
      "EM": 4096,
      "▁interesting": 4097,
      "▁location": 4098,
      "ils": 4099,
      "▁pull": 4100,
      "▁Form": 4101,
      "irection": 4102,
      "▁toward": 4103,
      "▁slow": 4104,
      "▁transfer": 4105,
      "▁hus": 4106,
      "▁Canadian": 4107,
      "▁Road": 4108,
      "▁investig": 4109,
      "ibly": 4110,
      "▁Bi": 4111,
      "▁anc": 4112,
      "▁Oh": 4113,
      "▁Royal": 4114,
      "▁Charles": 4115,
      "user": 4116,
      "antic": 4117,
      "▁central": 4118,
      "▁Sl": 4119,
      "ste": 4120,
      "ounds": 4121,
      "ancy": 4122,
      "▁array": 4123,
      "itude": 4124,
      "▁opin": 4125,
      "ula": 4126,
      "group": 4127,
      "▁Los": 4128,
      "IR": 4129,
      "udget": 4130,
      "▁structure": 4131,
      "▁fix": 4132,
      "▁Cap": 4133,
      "house": 4134,
      "▁Sa": 4135,
      "▁expand": 4136,
      "▁effects": 4137,
      "▁giving": 4138,
      "▁artist": 4139,
      "well": 4140,
      "De": 4141,
      "▁dram": 4142,
      "▁thinking": 4143,
      "stant": 4144,
      "▁Ma": 4145,
      "sembly": 4146,
      "bed": 4147,
      "▁Mo": 4148,
      "▁enter": 4149,
      "▁myself": 4150,
      "Node": 4151,
      "▁sales": 4152,
      "▁ge": 4153,
      "item": 4154,
      "▁traditional": 4155,
      "▁climate": 4156,
      "▁polic": 4157,
      "md": 4158,
      "▁tried": 4159,
      "▁reached": 4160,
      "▁commercial": 4161,
      "ategy": 4162,
      "▁helped": 4163,
      "▁Mass": 4164,
      "▁Human": 4165,
      "▁Florida": 4166,
      "itable": 4167,
      "▁stra": 4168,
      "▁wonder": 4169,
      "!\"": 4170,
      "▁reb": 4171,
      "riage": 4172,
      "icine": 4173,
      "win": 4174,
      "▁aw": 4175,
      "bre": 4176,
      "▁rule": 4177,
      "▁aware": 4178,
      "▁Island": 4179,
      "▁effective": 4180,
      "▁parties": 4181,
      "box": 4182,
      "▁gas": 4183,
      "▁Camp": 4184,
      "▁ideas": 4185,
      "▁Cur": 4186,
      "▁answer": 4187,
      "▁wood": 4188,
      "▁Iran": 4189,
      "▁Pub": 4190,
      "empl": 4191,
      "▁Bay": 4192,
      "▁bill": 4193,
      "atab": 4194,
      "▁transport": 4195,
      "▁letter": 4196,
      "▁eth": 4197,
      "▁shot": 4198,
      "▁achieve": 4199,
      "▁types": 4200,
      "api": 4201,
      "▁remains": 4202,
      "ride": 4203,
      "▁chance": 4204,
      "▁OF": 4205,
      "▁Chicago": 4206,
      "▁village": 4207,
      "▁);": 4208,
      "Qu": 4209,
      "▁phil": 4210,
      "▁Lord": 4211,
      "▁perhaps": 4212,
      "▁collabor": 4213,
      "All": 4214,
      "Info": 4215,
      "▁beautiful": 4216,
      "za": 4217,
      "▁Mont": 4218,
      "▁Econom": 4219,
      "▁autom": 4220,
      "▁providing": 4221,
      "eria": 4222,
      "▁Star": 4223,
      "▁serve": 4224,
      "▁les": 4225,
      "iant": 4226,
      "▁Paris": 4227,
      "azine": 4228,
      "▁positive": 4229,
      "▁mission": 4230,
      "ena": 4231,
      "▁swe": 4232,
      "▁Foundation": 4233,
      "▁reach": 4234,
      "▁ready": 4235,
      "hens": 4236,
      "OD": 4237,
      "▁understanding": 4238,
      "▁card": 4239,
      "▁cook": 4240,
      "▁vote": 4241,
      "▁Grand": 4242,
      "▁element": 4243,
      "table": 4244,
      "▁Frid": 4245,
      "▁ones": 4246,
      "ato": 4247,
      "orial": 4248,
      "On": 4249,
      "ici": 4250,
      "▁altern": 4251,
      "lict": 4252,
      "▁greater": 4253,
      "▁adopt": 4254,
      "word": 4255,
      "▁hospital": 4256,
      "▁agreement": 4257,
      "▁Sunday": 4258,
      "▁appropri": 4259,
      "▁ult": 4260,
      "▁responsible": 4261,
      "▁ang": 4262,
      "▁Americans": 4263,
      "▁Jo": 4264,
      "▁etc": 4265,
      "▁store": 4266,
      "length": 4267,
      "”,": 4268,
      "▁innov": 4269,
      "▁quarter": 4270,
      "▁highly": 4271,
      "For": 4272,
      "▁Rem": 4273,
      "▁investment": 4274,
      "ube": 4275,
      "▁double": 4276,
      "▁Development": 4277,
      "asion": 4278,
      "▁sust": 4279,
      "SE": 4280,
      "ails": 4281,
      "sm": 4282,
      "▁primary": 4283,
      "▁signed": 4284,
      "▁Hill": 4285,
      "ette": 4286,
      "▁assess": 4287,
      "▁majority": 4288,
      "▁seemed": 4289,
      "▁architect": 4290,
      "▁artists": 4291,
      "Event": 4292,
      "▁organizations": 4293,
      "▁reports": 4294,
      "eder": 4295,
      "vant": 4296,
      "▁shown": 4297,
      "▁initial": 4298,
      "▁activity": 4299,
      "uit": 4300,
      "Text": 4301,
      "▁Australian": 4302,
      "doc": 4303,
      "▁numbers": 4304,
      "▁Good": 4305,
      "aper": 4306,
      "▁therefore": 4307,
      "▁Tor": 4308,
      "▁annual": 4309,
      "▁thus": 4310,
      "▁Vict": 4311,
      "orage": 4312,
      "▁Gen": 4313,
      "ifying": 4314,
      "▁Sol": 4315,
      "▁Brown": 4316,
      "atre": 4317,
      "▁bus": 4318,
      "▁initi": 4319,
      "▁Ver": 4320,
      "▁sche": 4321,
      "iverse": 4322,
      "ping": 4323,
      "▁lines": 4324,
      "road": 4325,
      "isation": 4326,
      "▁Land": 4327,
      "ala": 4328,
      "▁Kh": 4329,
      "▁Top": 4330,
      "ulf": 4331,
      "▁male": 4332,
      "▁laws": 4333,
      "▁Islam": 4334,
      "race": 4335,
      "Config": 4336,
      "▁condition": 4337,
      "gar": 4338,
      "gest": 4339,
      "▁Prov": 4340,
      "AA": 4341,
      "▁Rock": 4342,
      "▁occup": 4343,
      "▁piece": 4344,
      "▁register": 4345,
      "_.": 4346,
      "▁prop": 4347,
      "▁employees": 4348,
      "▁writer": 4349,
      "iar": 4350,
      "▁Rad": 4351,
      "▁numer": 4352,
      "▁beg": 4353,
      "inn": 4354,
      "▁repe": 4355,
      "▁moving": 4356,
      "▁green": 4357,
      "anned": 4358,
      "▁correct": 4359,
      "▁Care": 4360,
      "oma": 4361,
      "▁digital": 4362,
      "▁Sk": 4363,
      "left": 4364,
      "▁Bur": 4365,
      "OM": 4366,
      "eds": 4367,
      "▁impl": 4368,
      "▁trial": 4369,
      "ano": 4370,
      "▁Sun": 4371,
      "rd": 4372,
      "▁Championship": 4373,
      "▁Lat": 4374,
      "▁husband": 4375,
      "Pl": 4376,
      "ancing": 4377,
      "▁stream": 4378,
      "▁categ": 4379,
      "▁truth": 4380,
      "But": 4381,
      "▁shoot": 4382,
      "▁tim": 4383,
      "▁raised": 4384,
      "▁Also": 4385,
      "Path": 4386,
      "▁completely": 4387,
      "▁Lu": 4388,
      "pack": 4389,
      "▁huge": 4390,
      "▁wear": 4391,
      "▁lived": 4392,
      "▁immediately": 4393,
      "▁Oper": 4394,
      "▁faith": 4395,
      "isf": 4396,
      "ulate": 4397,
      "())": 4398,
      "olean": 4399,
      "▁couldn": 4400,
      "▁variety": 4401,
      "▁surround": 4402,
      "▁emot": 4403,
      "edia": 4404,
      "▁Hel": 4405,
      "▁cris": 4406,
      "▁crim": 4407,
      "nel": 4408,
      "▁credit": 4409,
      "▁-->": 4410,
      "▁susp": 4411,
      "exp": 4412,
      "▁af": 4413,
      "bol": 4414,
      "▁Friday": 4415,
      "▁About": 4416,
      "▁fully": 4417,
      "▁gone": 4418,
      "▁radio": 4419,
      "cons": 4420,
      "Index": 4421,
      "▁Japanese": 4422,
      "▁sun": 4423,
      "ady": 4424,
      "▁officials": 4425,
      "▁sports": 4426,
      "▁cultural": 4427,
      "▁Open": 4428,
      "▁Arab": 4429,
      "State": 4430,
      "▁dog": 4431,
      "▁independent": 4432,
      "izes": 4433,
      "▁kept": 4434,
      "burg": 4435,
      "▁note": 4436,
      "▁Step": 4437,
      "▁scene": 4438,
      "▁vers": 4439,
      "▁attract": 4440,
      "Field": 4441,
      "uated": 4442,
      "config": 4443,
      "▁citizens": 4444,
      "anta": 4445,
      "ros": 4446,
      "Add": 4447,
      "▁starting": 4448,
      "▁kids": 4449,
      "▁Di": 4450,
      "▁AP": 4451,
      "▁generally": 4452,
      "▁Nov": 4453,
      "▁violence": 4454,
      "App": 4455,
      "▁<!--": 4456,
      "▁touch": 4457,
      "▁Second": 4458,
      "Att": 4459,
      "den": 4460,
      "inct": 4461,
      "Request": 4462,
      "cel": 4463,
      "▁drive": 4464,
      "▁wild": 4465,
      "▁officer": 4466,
      "ship": 4467,
      "▁records": 4468,
      "▁align": 4469,
      "▁strateg": 4470,
      "ronic": 4471,
      "SS": 4472,
      "mine": 4473,
      "▁Som": 4474,
      "▁gives": 4475,
      "iling": 4476,
      "▁stock": 4477,
      "▁pp": 4478,
      "active": 4479,
      "▁ST": 4480,
      "▁latest": 4481,
      "▁master": 4482,
      "ester": 4483,
      "▁har": 4484,
      "▁cert": 4485,
      "▁Big": 4486,
      "▁dream": 4487,
      "▁choice": 4488,
      "oat": 4489,
      "lis": 4490,
      "▁administration": 4491,
      "aby": 4492,
      "▁happen": 4493,
      "▁aspect": 4494,
      "▁uses": 4495,
      "▁sexual": 4496,
      "▁influence": 4497,
      "▁config": 4498,
      "content": 4499,
      "▁ship": 4500,
      "▁miles": 4501,
      ")(": 4502,
      "gment": 4503,
      "▁web": 4504,
      "▁claims": 4505,
      "atively": 4506,
      "▁Face": 4507,
      "▁failed": 4508,
      "▁à": 4509,
      "▁offered": 4510,
      "bour": 4511,
      "itled": 4512,
      "hi": 4513,
      "gr": 4514,
      "▁female": 4515,
      "▁Plan": 4516,
      "▁presented": 4517,
      "▁clin": 4518,
      "▁Dec": 4519,
      "▁births": 4520,
      "▁elements": 4521,
      "▁Mel": 4522,
      "▁spread": 4523,
      "▁benefits": 4524,
      "▁fif": 4525,
      "▁schol": 4526,
      "▁computer": 4527,
      "▁happy": 4528,
      "▁arrest": 4529,
      "▁previously": 4530,
      "OL": 4531,
      "▁Catholic": 4532,
      "▁demonstr": 4533,
      "arsh": 4534,
      "▁roll": 4535,
      "▁sy": 4536,
      "▁corn": 4537,
      "▁reasons": 4538,
      "▁tro": 4539,
      "hand": 4540,
      "standing": 4541,
      "▁software": 4542,
      "▁install": 4543,
      "▁Angeles": 4544,
      "▁Jim": 4545,
      "▁highest": 4546,
      "▁Jewish": 4547,
      "ini": 4548,
      "▁mill": 4549,
      "rig": 4550,
      "akers": 4551,
      "eline": 4552,
      "▁###": 4553,
      "▁Services": 4554,
      "▁Division": 4555,
      "▁Arts": 4556,
      "▁Time": 4557,
      "▁affect": 4558,
      "▁commit": 4559,
      "onents": 4560,
      "elled": 4561,
      "▁certainly": 4562,
      "What": 4563,
      "osoph": 4564,
      "▁connection": 4565,
      "▁chief": 4566,
      "▁opening": 4567,
      "Equ": 4568,
      "▁Atl": 4569,
      "▁phone": 4570,
      "▁doll": 4571,
      "▁Fre": 4572,
      "▁defend": 4573,
      "With": 4574,
      "▁safe": 4575,
      "Not": 4576,
      "▁figure": 4577,
      "▁Town": 4578,
      "uclear": 4579,
      "▁apply": 4580,
      "▁estim": 4581,
      "▁Project": 4582,
      "▁Mond": 4583,
      "▁leadership": 4584,
      "apers": 4585,
      "function": 4586,
      "▁customers": 4587,
      "FL": 4588,
      "▁proceed": 4589,
      "CE": 4590,
      "▁cancer": 4591,
      "print": 4592,
      "▁floor": 4593,
      "▁(!": 4594,
      "▁critical": 4595,
      "▁please": 4596,
      "▁load": 4597,
      "uled": 4598,
      "▁Ire": 4599,
      "▁talking": 4600,
      "▁recorded": 4601,
      "yer": 4602,
      "term": 4603,
      "▁shop": 4604,
      "▁gets": 4605,
      "▁rank": 4606,
      "▁Span": 4607,
      "ordin": 4608,
      "▁skills": 4609,
      "▁cru": 4610,
      "inner": 4611,
      "title": 4612,
      "▁sell": 4613,
      "▁eventually": 4614,
      "▁Fe": 4615,
      "anda": 4616,
      "▁ign": 4617,
      "ician": 4618,
      "▁debut": 4619,
      "▁meant": 4620,
      "▁wat": 4621,
      "enced": 4622,
      "▁caused": 4623,
      "pat": 4624,
      "▁map": 4625,
      "igration": 4626,
      "▁harm": 4627,
      "▁Test": 4628,
      "▁Satur": 4629,
      "▁pet": 4630,
      "▁»": 4631,
      "▁input": 4632,
      "umer": 4633,
      "dt": 4634,
      "▁placed": 4635,
      "Over": 4636,
      "▁Polit": 4637,
      "▁Chief": 4638,
      "▁Spe": 4639,
      "▁Mexico": 4640,
      "ructure": 4641,
      "▁danger": 4642,
      "section": 4643,
      "▁minor": 4644,
      "▁Matt": 4645,
      "arden": 4646,
      "▁forms": 4647,
      "▁closed": 4648,
      "ns": 4649,
      "▁Wed": 4650,
      "▁ended": 4651,
      "ella": 4652,
      "▁Av": 4653,
      "▁murder": 4654,
      "▁famous": 4655,
      "emic": 4656,
      "Context": 4657,
      "▁Georg": 4658,
      "tained": 4659,
      "▁existing": 4660,
      "▁Writ": 4661,
      "▁difference": 4662,
      "▁Their": 4663,
      "▁Because": 4664,
      "▁looks": 4665,
      "antly": 4666,
      "using": 4667,
      "▁consult": 4668,
      "▁stated": 4669,
      "Def": 4670,
      "!!": 4671,
      "▁Ill": 4672,
      "SP": 4673,
      "OP": 4674,
      "▁noted": 4675,
      "FA": 4676,
      "▁wid": 4677,
      "▁blog": 4678,
      "▁index": 4679,
      "Ph": 4680,
      "▁operation": 4681,
      "estic": 4682,
      "▁Long": 4683,
      "lig": 4684,
      "▁Virginia": 4685,
      "▁critic": 4686,
      "stitution": 4687,
      "▁Henry": 4688,
      "▁ir": 4689,
      "▁AM": 4690,
      "OC": 4691,
      "▁lif": 4692,
      "▁Du": 4693,
      "▁Academy": 4694,
      "▁fine": 4695,
      "▁hour": 4696,
      "▁rail": 4697,
      "rieved": 4698,
      "ario": 4699,
      "▁senior": 4700,
      "▁disapp": 4701,
      "true": 4702,
      "icians": 4703,
      "Element": 4704,
      "▁convers": 4705,
      "▁protected": 4706,
      "ita": 4707,
      "▁users": 4708,
      "▁exerc": 4709,
      "▁counter": 4710,
      "▁earth": 4711,
      "▁sea": 4712,
      "▁measure": 4713,
      "▁End": 4714,
      "////////": 4715,
      "ework": 4716,
      "orney": 4717,
      "respond": 4718,
      "ellow": 4719,
      "▁express": 4720,
      "ipment": 4721,
      "▁wel": 4722,
      "▁Tim": 4723,
      "▁valid": 4724,
      "▁creating": 4725,
      "▁businesses": 4726,
      "▁protection": 4727,
      "▁compared": 4728,
      "▁theory": 4729,
      "▁arm": 4730,
      "▁hab": 4731,
      "▁charge": 4732,
      "▁Martin": 4733,
      "ynam": 4734,
      "▁temper": 4735,
      "▁param": 4736,
      "▁Jul": 4737,
      "ili": 4738,
      "▁pric": 4739,
      "level": 4740,
      "▁Cast": 4741,
      "▁window": 4742,
      "▁USA": 4743,
      "▁lab": 4744,
      "▁performed": 4745,
      "next": 4746,
      "▁mechan": 4747,
      "▁Play": 4748,
      "ervation": 4749,
      "▁__": 4750,
      "';": 4751,
      "▁allows": 4752,
      "▁PM": 4753,
      "▁normal": 4754,
      "hab": 4755,
      "▁Who": 4756,
      "▁Pet": 4757,
      "▁Film": 4758,
      "▁trou": 4759,
      "▁select": 4760,
      "ync": 4761,
      "▁paint": 4762,
      "▁despite": 4763,
      "elligence": 4764,
      "block": 4765,
      "▁save": 4766,
      "actions": 4767,
      "aven": 4768,
      "▁goals": 4769,
      "▁cities": 4770,
      "▁Earth": 4771,
      "▁Today": 4772,
      "asket": 4773,
      "tes": 4774,
      "▁Histor": 4775,
      "▁reflect": 4776,
      "grad": 4777,
      "▁Bet": 4778,
      "▁construct": 4779,
      "▁finished": 4780,
      "roller": 4781,
      "▁Management": 4782,
      "Al": 4783,
      "atever": 4784,
      "▁£": 4785,
      "▁defe": 4786,
      "▁Penn": 4787,
      "▁liber": 4788,
      "▁Stat": 4789,
      "Form": 4790,
      "▁chair": 4791,
      "▁send": 4792,
      "▁actions": 4793,
      "icit": 4794,
      "clusion": 4795,
      "▁opportunities": 4796,
      "▁direction": 4797,
      "▁Living": 4798,
      "='": 4799,
      "▁chem": 4800,
      "iny": 4801,
      "orter": 4802,
      "rison": 4803,
      "▁fans": 4804,
      "gu": 4805,
      "Service": 4806,
      "▁unf": 4807,
      "▁Last": 4808,
      "jo": 4809,
      "▁Tre": 4810,
      "▁sector": 4811,
      "▁Federal": 4812,
      "▁interested": 4813,
      "▁train": 4814,
      "▁Sil": 4815,
      "nect": 4816,
      "▁Any": 4817,
      "▁benefit": 4818,
      "▁buildings": 4819,
      "▁km": 4820,
      "▁Professor": 4821,
      "stances": 4822,
      "uries": 4823,
      "gn": 4824,
      "▁Secretary": 4825,
      "▁Google": 4826,
      "▁Another": 4827,
      "▁reality": 4828,
      "▁battle": 4829,
      "▁Wood": 4830,
      "▁catch": 4831,
      "▁labor": 4832,
      "▁entry": 4833,
      "azing": 4834,
      "▁larger": 4835,
      "▁funding": 4836,
      "▁Jesus": 4837,
      "▁authority": 4838,
      "▁materials": 4839,
      "▁Web": 4840,
      "pid": 4841,
      "▁extrem": 4842,
      "▁ut": 4843,
      "pret": 4844,
      "▁Obama": 4845,
      "▁instr": 4846,
      "▁Saturday": 4847,
      "ura": 4848,
      "▁wants": 4849,
      "▁shared": 4850,
      "▁formed": 4851,
      "icks": 4852,
      "erved": 4853,
      "▁yourself": 4854,
      "▁daily": 4855,
      "▁proposed": 4856,
      "▁partner": 4857,
      "▁reference": 4858,
      "▁Lab": 4859,
      "azz": 4860,
      "▁Ireland": 4861,
      "IA": 4862,
      "ologies": 4863,
      "ki": 4864,
      "▁Old": 4865,
      "▁wall": 4866,
      "err": 4867,
      "▁actual": 4868,
      "▁absol": 4869,
      "▁ran": 4870,
      "UL": 4871,
      "▁()": 4872,
      "If": 4873,
      "▁Italian": 4874,
      "▁device": 4875,
      "▁historical": 4876,
      "▁easily": 4877,
      "unched": 4878,
      "▁client": 4879,
      "▁fresh": 4880,
      "Of": 4881,
      "ented": 4882,
      "▁Author": 4883,
      "▁descript": 4884,
      "▁proced": 4885,
      "pty": 4886,
      "▁otherwise": 4887,
      "▁weight": 4888,
      "po": 4889,
      "atabase": 4890,
      "▁manager": 4891,
      "VID": 4892,
      "▁overall": 4893,
      "▁notice": 4894,
      "▁Justice": 4895,
      "▁pattern": 4896,
      "▁electric": 4897,
      "Map": 4898,
      "▁circum": 4899,
      "▁brief": 4900,
      "▁experien": 4901,
      "▁option": 4902,
      "astern": 4903,
      "rowd": 4904,
      "▁Elect": 4905,
      "▁exactly": 4906,
      "▁produce": 4907,
      "▁www": 4908,
      "▁Sup": 4909,
      "▁officers": 4910,
      "ocol": 4911,
      "▁email": 4912,
      "▁terror": 4913,
      "Array": 4914,
      "▁deaths": 4915,
      "▁powerful": 4916,
      "▁department": 4917,
      "\"\"": 4918,
      "▁cop": 4919,
      "unicip": 4920,
      "acing": 4921,
      "etry": 4922,
      "ias": 4923,
      "▁planning": 4924,
      "▁freedom": 4925,
      "▁budget": 4926,
      "nership": 4927,
      "ingu": 4928,
      "parent": 4929,
      "apache": 4930,
      "▁editor": 4931,
      "▁feeling": 4932,
      "▁attend": 4933,
      "▁Bo": 4934,
      "▁join": 4935,
      "▁sav": 4936,
      "▁approx": 4937,
      "ialog": 4938,
      "****************": 4939,
      "▁Den": 4940,
      "▁appears": 4941,
      "▁surface": 4942,
      "▁marg": 4943,
      "▁older": 4944,
      "▁king": 4945,
      "▁learned": 4946,
      "▁becoming": 4947,
      "▁competition": 4948,
      "ML": 4949,
      "▁Lake": 4950,
      "▁Build": 4951,
      "▁internal": 4952,
      "▁audience": 4953,
      "lick": 4954,
      "ourney": 4955,
      "orrow": 4956,
      "▁expert": 4957,
      "▁introduced": 4958,
      "▁weap": 4959,
      "MS": 4960,
      "▁Like": 4961,
      "▁Pan": 4962,
      "▁elected": 4963,
      "▁bound": 4964,
      "?”": 4965,
      "BA": 4966,
      "▁unit": 4967,
      "TH": 4968,
      "Des": 4969,
      "▁Its": 4970,
      "▁Wind": 4971,
      "▁policies": 4972,
      "Le": 4973,
      "▁becomes": 4974,
      "▁limit": 4975,
      "▁Back": 4976,
      "▁Set": 4977,
      "thlet": 4978,
      "ultural": 4979,
      "▁defined": 4980,
      "▁Mur": 4981,
      "▁obvious": 4982,
      "▁row": 4983,
      "▁Ira": 4984,
      "▁Spanish": 4985,
      "▁comfort": 4986,
      "▁founded": 4987,
      "▁Middle": 4988,
      "▁jobs": 4989,
      "Item": 4990,
      "▁poll": 4991,
      "igan": 4992,
      "▁contains": 4993,
      "▁Det": 4994,
      "Code": 4995,
      "▁task": 4996,
      "ashion": 4997,
      "▁Security": 4998,
      "bur": 4999,
      "▁Monday": 5000,
      "pm": 5001,
      "▁executive": 5002,
      "olk": 5003,
      "▁supported": 5004,
      "▁forced": 5005,
      "▁Facebook": 5006,
      "▁Asia": 5007,
      "▁sources": 5008,
      "gt": 5009,
      "emporary": 5010,
      "▁selected": 5011,
      "care": 5012,
      "▁mess": 5013,
      "▁Engine": 5014,
      "▁coach": 5015,
      "▁capacity": 5016,
      "▁decades": 5017,
      "▁street": 5018,
      "▁requirements": 5019,
      "▁Kingdom": 5020,
      "▁numerous": 5021,
      "CL": 5022,
      "▁Victor": 5023,
      "▁pressure": 5024,
      "++": 5025,
      "▁remained": 5026,
      "fil": 5027,
      "prot": 5028,
      "▁appointed": 5029,
      "▁presence": 5030,
      "enses": 5031,
      "▁politics": 5032,
      "▁methods": 5033,
      "▁basic": 5034,
      "▁Global": 5035,
      "▁Foot": 5036,
      "▁continues": 5037,
      "host": 5038,
      "ais": 5039,
      "▁recommend": 5040,
      "stream": 5041,
      "▁Dou": 5042,
      "▁challenge": 5043,
      "▁Mos": 5044,
      "▁aim": 5045,
      "idden": 5046,
      "▁Johnson": 5047,
      "▁defin": 5048,
      "▁brain": 5049,
      "▁EU": 5050,
      "▁destroy": 5051,
      "▁Main": 5052,
      "inger": 5053,
      "▁Hot": 5054,
      "▁Joseph": 5055,
      "▁crime": 5056,
      "▁warm": 5057,
      "EX": 5058,
      "Size": 5059,
      "▁directed": 5060,
      "edd": 5061,
      "▁setting": 5062,
      "▁youth": 5063,
      "▁Pop": 5064,
      "▁memory": 5065,
      "imal": 5066,
      "▁environmental": 5067,
      "▁Rights": 5068,
      "inet": 5069,
      "▁nor": 5070,
      "▁Britain": 5071,
      "▁items": 5072,
      "▁choose": 5073,
      "▁carried": 5074,
      "spect": 5075,
      "▁hair": 5076,
      "▁Cr": 5077,
      "▁Aff": 5078,
      "ponse": 5079,
      "▁Love": 5080,
      "ón": 5081,
      "▁regarding": 5082,
      "pire": 5083,
      "▁Hon": 5084,
      "▁scen": 5085,
      "object": 5086,
      "▁calls": 5087,
      "▁Lee": 5088,
      "rec": 5089,
      "▁advant": 5090,
      "▁Mat": 5091,
      "▁straight": 5092,
      "▁justice": 5093,
      "define": 5094,
      "▁Civil": 5095,
      "▁agree": 5096,
      "run": 5097,
      "▁commission": 5098,
      "eless": 5099,
      "▁Id": 5100,
      "▁Organ": 5101,
      "▁excell": 5102,
      "▁equipment": 5103,
      "▁assum": 5104,
      "▁Data": 5105,
      "▁picture": 5106,
      "can": 5107,
      "map": 5108,
      "RA": 5109,
      "xy": 5110,
      "sl": 5111,
      "▁prec": 5112,
      "west": 5113,
      "▁resource": 5114,
      "▁Muslim": 5115,
      ",'": 5116,
      "▁leaving": 5117,
      "irus": 5118,
      "▁Special": 5119,
      "och": 5120,
      "▁institutions": 5121,
      "oston": 5122,
      "▁funds": 5123,
      "▁Ros": 5124,
      "node": 5125,
      "EE": 5126,
      "▁crisis": 5127,
      "▁rare": 5128,
      "▁spl": 5129,
      "▁interests": 5130,
      "▁nav": 5131,
      "works": 5132,
      "▁Community": 5133,
      "create": 5134,
      "▁showed": 5135,
      "▁Jeff": 5136,
      "stra": 5137,
      "▁Senate": 5138,
      "DA": 5139,
      "reci": 5140,
      "▁Kn": 5141,
      "▁restaur": 5142,
      "▁satisf": 5143,
      "▁issued": 5144,
      "▁eval": 5145,
      "▁speed": 5146,
      "▁conference": 5147,
      "▁src": 5148,
      "dated": 5149,
      "▁Sir": 5150,
      "enth": 5151,
      "illa": 5152,
      "▁Carolina": 5153,
      "▁residents": 5154,
      "orpor": 5155,
      "▁solid": 5156,
      "Or": 5157,
      "▁cat": 5158,
      "▁rise": 5159,
      "▁cry": 5160,
      "▁univers": 5161,
      "▁sequ": 5162,
      "▁column": 5163,
      "verse": 5164,
      "▁agreed": 5165,
      "▁university": 5166,
      "▁label": 5167,
      "bo": 5168,
      "▁herself": 5169,
      "ramework": 5170,
      "▁opinion": 5171,
      "▁cool": 5172,
      "▁Aut": 5173,
      "unte": 5174,
      "▁Information": 5175,
      "BS": 5176,
      "▁rates": 5177,
      "OW": 5178,
      "▁appeal": 5179,
      "▁Iraq": 5180,
      "▁covered": 5181,
      "gypt": 5182,
      "▁secret": 5183,
      "▁ahead": 5184,
      "▁developing": 5185,
      "▁images": 5186,
      "aling": 5187,
      "▁Columb": 5188,
      "▁Retrieved": 5189,
      "yles": 5190,
      "▁adapt": 5191,
      "ffic": 5192,
      "Americ": 5193,
      "input": 5194,
      "▁Follow": 5195,
      "▁none": 5196,
      "▁heavy": 5197,
      "▁Bu": 5198,
      "▁arrang": 5199,
      "▁agency": 5200,
      "▁Head": 5201,
      "▁challenges": 5202,
      "▁patient": 5203,
      "▁eye": 5204,
      "▁Awards": 5205,
      "▁Men": 5206,
      "▁Lead": 5207,
      "style": 5208,
      "▁coast": 5209,
      "▁neighbor": 5210,
      "▁strategy": 5211,
      "arant": 5212,
      "odies": 5213,
      "ua": 5214,
      "▁restrict": 5215,
      "▁blue": 5216,
      "▁mist": 5217,
      "child": 5218,
      "▁appropriate": 5219,
      "▁Water": 5220,
      "lient": 5221,
      "Hand": 5222,
      "poses": 5223,
      "urban": 5224,
      "▁maybe": 5225,
      "▁feed": 5226,
      "Ed": 5227,
      "lem": 5228,
      "ban": 5229,
      "▁mental": 5230,
      "▁rob": 5231,
      "▁clearly": 5232,
      "▁transl": 5233,
      "▁criminal": 5234,
      "▁standards": 5235,
      "▁fourth": 5236,
      "▁Gall": 5237,
      "istance": 5238,
      "▁Italy": 5239,
      "▁wouldn": 5240,
      "▁Young": 5241,
      "▁thousands": 5242,
      "▁Once": 5243,
      "▁reform": 5244,
      "▁supply": 5245,
      "▁teaching": 5246,
      "uffer": 5247,
      "oms": 5248,
      "ulty": 5249,
      "▁west": 5250,
      "ayout": 5251,
      "▁reduce": 5252,
      "isters": 5253,
      "▁amb": 5254,
      "iced": 5255,
      "cell": 5256,
      "chen": 5257,
      "▁episode": 5258,
      "▁Bob": 5259,
      "yan": 5260,
      "osh": 5261,
      "▁Each": 5262,
      "look": 5263,
      "info": 5264,
      "▁Administ": 5265,
      "ursday": 5266,
      "▁marriage": 5267,
      "▁Fund": 5268,
      "arts": 5269,
      "``": 5270,
      "MA": 5271,
      "▁mentioned": 5272,
      "page": 5273,
      "▁Vis": 5274,
      "▁doubt": 5275,
      "▁Pac": 5276,
      "TS": 5277,
      "eful": 5278,
      "=\"../../../../": 5279,
      "Val": 5280,
      "entially": 5281,
      "▁views": 5282,
      "usion": 5283,
      "▁insurance": 5284,
      "▁territ": 5285,
      "▁Force": 5286,
      "▁musical": 5287,
      "▁Free": 5288,
      "▁package": 5289,
      "rolled": 5290,
      "▁consequ": 5291,
      "▁Liber": 5292,
      "▁measures": 5293,
      "▁newsp": 5294,
      "TER": 5295,
      "web": 5296,
      "var": 5297,
      "reate": 5298,
      "actory": 5299,
      "▁plus": 5300,
      "▁Scot": 5301,
      "lang": 5302,
      "▁Person": 5303,
      "▁sites": 5304,
      "▁plays": 5305,
      "othing": 5306,
      "▁height": 5307,
      "gency": 5308,
      "post": 5309,
      "▁belong": 5310,
      "▁separate": 5311,
      "▁generation": 5312,
      "ircraft": 5313,
      "nam": 5314,
      "from": 5315,
      "▁researc": 5316,
      "▁lov": 5317,
      "rive": 5318,
      "▁calc": 5319,
      "▁wish": 5320,
      "▁fort": 5321,
      "▁Family": 5322,
      "▁sleep": 5323,
      "Build": 5324,
      "▁transform": 5325,
      "▁somew": 5326,
      "[]": 5327,
      "itors": 5328,
      "ipe": 5329,
      "▁models": 5330,
      "▁believed": 5331,
      "▁stuff": 5332,
      "▁Govern": 5333,
      "▁Uk": 5334,
      "NA": 5335,
      "oration": 5336,
      "MP": 5337,
      "kins": 5338,
      "cho": 5339,
      "▁bool": 5340,
      "osure": 5341,
      "▁slight": 5342,
      "▁Sar": 5343,
      "width": 5344,
      "▁solution": 5345,
      "▁item": 5346,
      "▁Egypt": 5347,
      "▁tend": 5348,
      "▁java": 5349,
      "▁Series": 5350,
      "Ser": 5351,
      "▁Christmas": 5352,
      "▁Tues": 5353,
      "ylv": 5354,
      "ensus": 5355,
      "yt": 5356,
      "▁Media": 5357,
      "▁Supreme": 5358,
      "▁;": 5359,
      "▁cells": 5360,
      "▁depend": 5361,
      "▁Both": 5362,
      "default": 5363,
      "▁Internet": 5364,
      "▁CH": 5365,
      "▁McC": 5366,
      "▁owner": 5367,
      "▁output": 5368,
      "▁Boston": 5369,
      "ruit": 5370,
      "azon": 5371,
      "▁Corpor": 5372,
      "▁subsequ": 5373,
      "amin": 5374,
      "▁Haw": 5375,
      "ptions": 5376,
      ">&": 5377,
      "▁speech": 5378,
      "phas": 5379,
      "racy": 5380,
      "▁CD": 5381,
      "Message": 5382,
      "▁committed": 5383,
      "▁spot": 5384,
      "▁runs": 5385,
      "ba": 5386,
      "rate": 5387,
      "▁sect": 5388,
      "going": 5389,
      "▁behavior": 5390,
      "▁loved": 5391,
      "▁nine": 5392,
      "▁Medical": 5393,
      "▁===": 5394,
      "oted": 5395,
      "▁units": 5396,
      "▁Charl": 5397,
      "▁Where": 5398,
      "▁tick": 5399,
      "▁multi": 5400,
      "▁Boy": 5401,
      "▁push": 5402,
      "▁Wal": 5403,
      "▁conflict": 5404,
      "▁Wall": 5405,
      "tra": 5406,
      "ola": 5407,
      "▁Joe": 5408,
      "▁Festival": 5409,
      "▁entered": 5410,
      "▁seeing": 5411,
      "▁Whe": 5412,
      "count": 5413,
      "▁Sand": 5414,
      "▁mostly": 5415,
      "▁crowd": 5416,
      "▁east": 5417,
      "▁rich": 5418,
      "▁Prot": 5419,
      "That": 5420,
      "▁Thursday": 5421,
      "ani": 5422,
      "▁purposes": 5423,
      "▁Technology": 5424,
      "▁Report": 5425,
      "▁Fort": 5426,
      "▁sustain": 5427,
      "▁biggest": 5428,
      "▁Power": 5429,
      "▁ta": 5430,
      "▁Before": 5431,
      "▁thr": 5432,
      "▁Policy": 5433,
      "▁academic": 5434,
      "▁Library": 5435,
      "emy": 5436,
      "▁die": 5437,
      "build": 5438,
      "PE": 5439,
      "iler": 5440,
      "uster": 5441,
      "▁island": 5442,
      "▁compar": 5443,
      "▁managed": 5444,
      "▁Gra": 5445,
      "Be": 5446,
      "▁focused": 5447,
      "▁Mrs": 5448,
      "Trans": 5449,
      "▁profession": 5450,
      "oti": 5451,
      "secut": 5452,
      "▁uns": 5453,
      "▁advoc": 5454,
      "cean": 5455,
      "yr": 5456,
      "▁launched": 5457,
      "▁factors": 5458,
      "▁indic": 5459,
      "▁Invest": 5460,
      "claim": 5461,
      "▁facilities": 5462,
      "pping": 5463,
      "▁strength": 5464,
      "rics": 5465,
      "base": 5466,
      "nesday": 5467,
      "▁mut": 5468,
      "ifier": 5469,
      "Up": 5470,
      "▁requires": 5471,
      "abilities": 5472,
      "▁importance": 5473,
      "▁Valley": 5474,
      "owl": 5475,
      "▁Further": 5476,
      "▁damage": 5477,
      "▁Str": 5478,
      "ersion": 5479,
      "ca": 5480,
      "▁replace": 5481,
      "▁raise": 5482,
      "▁perspect": 5483,
      "rapy": 5484,
      "▁grew": 5485,
      "asy": 5486,
      "▁Pak": 5487,
      "▁termin": 5488,
      "yth": 5489,
      "lies": 5490,
      "ta": 5491,
      "Out": 5492,
      "olit": 5493,
      "error": 5494,
      "razil": 5495,
      "▁Ro": 5496,
      "▁originally": 5497,
      "▁determined": 5498,
      "▁dim": 5499,
      "irty": 5500,
      "▁Squ": 5501,
      "ensions": 5502,
      "osis": 5503,
      "asure": 5504,
      "▁drink": 5505,
      "css": 5506,
      "iana": 5507,
      "icted": 5508,
      "mes": 5509,
      "▁pun": 5510,
      "▁Games": 5511,
      "▁scale": 5512,
      "▁sale": 5513,
      "▁Sov": 5514,
      "stein": 5515,
      "▁equal": 5516,
      "▁vehicle": 5517,
      "▁micro": 5518,
      "▁witness": 5519,
      "▁guitar": 5520,
      "▁glass": 5521,
      "▁Tuesday": 5522,
      "},": 5523,
      "▁cold": 5524,
      "▁Police": 5525,
      "▁clients": 5526,
      "▁Irish": 5527,
      "▁Show": 5528,
      "▁flow": 5529,
      "inding": 5530,
      "▁vision": 5531,
      "▁Order": 5532,
      "aren": 5533,
      "▁Section": 5534,
      "▁Kar": 5535,
      "▁authorities": 5536,
      "▁scientific": 5537,
      "▁forest": 5538,
      "roud": 5539,
      "▁arrived": 5540,
      "▁Bas": 5541,
      "irmed": 5542,
      "life": 5543,
      "ifically": 5544,
      "▁COVID": 5545,
      "ributed": 5546,
      "▁listed": 5547,
      "▁river": 5548,
      "Gener": 5549,
      "ULL": 5550,
      "▁operating": 5551,
      "ses": 5552,
      "▁advert": 5553,
      "▁approximately": 5554,
      "▁girls": 5555,
      "▁launch": 5556,
      "google": 5557,
      "▁Jones": 5558,
      "▁household": 5559,
      "anging": 5560,
      "▁Chair": 5561,
      "▁breat": 5562,
      "fit": 5563,
      "▁argument": 5564,
      "alle": 5565,
      "▁tree": 5566,
      "initely": 5567,
      "include": 5568,
      "▁Next": 5569,
      "▁army": 5570,
      "inem": 5571,
      "ASS": 5572,
      "PR": 5573,
      "▁illust": 5574,
      "▁missing": 5575,
      "▁Zeal": 5576,
      "▁fit": 5577,
      "▁Centre": 5578,
      "▁Jon": 5579,
      "▁Studies": 5580,
      "▁burn": 5581,
      "▁Ell": 5582,
      "▁nuclear": 5583,
      "▁intended": 5584,
      "ican": 5585,
      "▁committee": 5586,
      "assert": 5587,
      "▁correspond": 5588,
      "▁rat": 5589,
      "▁Tour": 5590,
      "▁investigation": 5591,
      "▁decisions": 5592,
      "▁fields": 5593,
      "▁ancient": 5594,
      "▁conclud": 5595,
      "▁belief": 5596,
      "▁homes": 5597,
      "▁ec": 5598,
      "▁winning": 5599,
      "▁camer": 5600,
      "iples": 5601,
      "ih": 5602,
      "CA": 5603,
      "▁Mot": 5604,
      "▁Andrew": 5605,
      "▁gar": 5606,
      "▁housing": 5607,
      "▁Enter": 5608,
      "▁skin": 5609,
      "▁favorite": 5610,
      "▁spect": 5611,
      "▁documents": 5612,
      "iques": 5613,
      "▁identity": 5614,
      "cles": 5615,
      "▁Wednesday": 5616,
      "power": 5617,
      "Log": 5618,
      "▁cas": 5619,
      "▁node": 5620,
      "▁serving": 5621,
      "▁knows": 5622,
      "▁trip": 5623,
      "asketball": 5624,
      "Ad": 5625,
      "▁hearing": 5626,
      "▁reject": 5627,
      "▁journey": 5628,
      "▁Southern": 5629,
      "▁joint": 5630,
      "▁comments": 5631,
      "▁articles": 5632,
      "start": 5633,
      "▁determine": 5634,
      "=\"#": 5635,
      "eting": 5636,
      "ribe": 5637,
      "▁fle": 5638,
      "current": 5639,
      "ucky": 5640,
      "▁manner": 5641,
      "▁tools": 5642,
      "▁distance": 5643,
      "ishop": 5644,
      "ums": 5645,
      "▁session": 5646,
      "▁practices": 5647,
      "▁experiences": 5648,
      "▁discovered": 5649,
      "uous": 5650,
      "▁format": 5651,
      "EST": 5652,
      "▁pages": 5653,
      "▁relevant": 5654,
      "▁Zealand": 5655,
      "▁Sports": 5656,
      "▁machine": 5657,
      "▁notes": 5658,
      "ushed": 5659,
      "▁applications": 5660,
      "▁failure": 5661,
      "▁Ep": 5662,
      "▁ban": 5663,
      "rant": 5664,
      "ora": 5665,
      "▁auth": 5666,
      "▁Parliament": 5667,
      "▁steps": 5668,
      "▁era": 5669,
      "▁Despite": 5670,
      "imb": 5671,
      "=\"../": 5672,
      "▁twenty": 5673,
      "▁estate": 5674,
      "dden": 5675,
      "oles": 5676,
      "▁spend": 5677,
      "▁wealth": 5678,
      "aid": 5679,
      "dule": 5680,
      "▁concent": 5681,
      "PS": 5682,
      "▁apparent": 5683,
      "Count": 5684,
      "▁Please": 5685,
      "▁sister": 5686,
      "▁:=": 5687,
      "▁unless": 5688,
      "▁Team": 5689,
      "▁animals": 5690,
      "▁prefer": 5691,
      ";&": 5692,
      "▁properties": 5693,
      "under": 5694,
      "▁Conference": 5695,
      "▁Williams": 5696,
      "▁Brazil": 5697,
      "fe": 5698,
      "▁Democratic": 5699,
      "mond": 5700,
      "Param": 5701,
      "ía": 5702,
      "▁unc": 5703,
      "▁applied": 5704,
      "law": 5705,
      "és": 5706,
      "Manager": 5707,
      "▁doctor": 5708,
      "▁domin": 5709,
      "▁awarded": 5710,
      "▁institution": 5711,
      "▁hero": 5712,
      "▁Four": 5713,
      "▁heat": 5714,
      "▁responsibility": 5715,
      "▁vacc": 5716,
      "▁Daniel": 5717,
      "▁CEO": 5718,
      "▁resol": 5719,
      "▁Week": 5720,
      "rastructure": 5721,
      "▁advance": 5722,
      "utch": 5723,
      "Ent": 5724,
      "▁Way": 5725,
      "PA": 5726,
      "gent": 5727,
      "▁expression": 5728,
      "▁Stand": 5729,
      "▁appreci": 5730,
      "▁colon": 5731,
      "▁Dev": 5732,
      "▁whatever": 5733,
      "ocket": 5734,
      "▁discussion": 5735,
      "iano": 5736,
      "▁marketing": 5737,
      "inder": 5738,
      "▁classes": 5739,
      "▁guid": 5740,
      "▁bottom": 5741,
      "▁Ok": 5742,
      "ONT": 5743,
      "▁Mike": 5744,
      "iat": 5745,
      "▁divid": 5746,
      "▁referred": 5747,
      "da": 5748,
      "▁Through": 5749,
      "▁finding": 5750,
      "▁Chris": 5751,
      "ansas": 5752,
      "▁league": 5753,
      "▁sac": 5754,
      "▁truly": 5755,
      "▁é": 5756,
      "CR": 5757,
      "▁onto": 5758,
      "▁Return": 5759,
      "▁lock": 5760,
      "▁depart": 5761,
      "▁defense": 5762,
      "align": 5763,
      "▁helping": 5764,
      "java": 5765,
      "▁ice": 5766,
      "teen": 5767,
      "hew": 5768,
      "▁native": 5769,
      "▁dedicated": 5770,
      "▁prepar": 5771,
      "▁stood": 5772,
      "itage": 5773,
      "▁sudden": 5774,
      "▁essential": 5775,
      "▁concerns": 5776,
      "rier": 5777,
      "▁regional": 5778,
      "▁Gar": 5779,
      "▁Republican": 5780,
      "SA": 5781,
      "▁pal": 5782,
      "▁Color": 5783,
      "▁execut": 5784,
      "▁lit": 5785,
      "nergy": 5786,
      "TD": 5787,
      "▁remove": 5788,
      "There": 5789,
      "▁Yes": 5790,
      "▁score": 5791,
      "atically": 5792,
      "▁enh": 5793,
      "etic": 5794,
      "▁Francisco": 5795,
      "▁Rail": 5796,
      "soft": 5797,
      "greg": 5798,
      "xx": 5799,
      "▁religion": 5800,
      "▁Swed": 5801,
      "ipal": 5802,
      "▁interpret": 5803,
      "▁tradition": 5804,
      "context": 5805,
      "▁Camb": 5806,
      "▁instruct": 5807,
      "▁Max": 5808,
      "▁purchase": 5809,
      "ograp": 5810,
      "ione": 5811,
      "▁beat": 5812,
      "ocracy": 5813,
      "oz": 5814,
      "arian": 5815,
      "▁centre": 5816,
      "▁passion": 5817,
      "php": 5818,
      "▁Greek": 5819,
      "▁museum": 5820,
      "▁pil": 5821,
      "================": 5822,
      "▁Pakistan": 5823,
      "▁removed": 5824,
      "▁teacher": 5825,
      "▁partnership": 5826,
      "ffect": 5827,
      "▁Fred": 5828,
      "ingly": 5829,
      "▁prepared": 5830,
      "▁concert": 5831,
      "▁Van": 5832,
      "clusive": 5833,
      "▁identified": 5834,
      "▁rent": 5835,
      "press": 5836,
      "ador": 5837,
      "▁san": 5838,
      "▁Far": 5839,
      "apping": 5840,
      "covery": 5841,
      "Inter": 5842,
      "▁featured": 5843,
      "valid": 5844,
      "▁cash": 5845,
      "▁experienced": 5846,
      "zen": 5847,
      "▁entertain": 5848,
      "▁Queen": 5849,
      "nic": 5850,
      "▁Northern": 5851,
      "▁doct": 5852,
      "▁std": 5853,
      "▁update": 5854,
      "related": 5855,
      "####": 5856,
      "▁accur": 5857,
      "oir": 5858,
      "which": 5859,
      "▁kill": 5860,
      "▁technical": 5861,
      "▁afford": 5862,
      "▁Palest": 5863,
      "▁amazing": 5864,
      "ATION": 5865,
      "core": 5866,
      "From": 5867,
      "▁studio": 5868,
      "▁professor": 5869,
      "oned": 5870,
      "▁nice": 5871,
      "▁honor": 5872,
      "aped": 5873,
      "▁arms": 5874,
      "▁holding": 5875,
      "▁conducted": 5876,
      "▁communication": 5877,
      "oes": 5878,
      "check": 5879,
      "▁Executive": 5880,
      "▁aircraft": 5881,
      "▁NY": 5882,
      "▁shape": 5883,
      "▁persons": 5884,
      "▁Soviet": 5885,
      "uts": 5886,
      "▁ID": 5887,
      "▁Ken": 5888,
      "▁cars": 5889,
      "▁diss": 5890,
      "▁recognized": 5891,
      "legal": 5892,
      "▁evening": 5893,
      "▁cer": 5894,
      "▁Jackson": 5895,
      "rows": 5896,
      "etime": 5897,
      "▁RE": 5898,
      "omy": 5899,
      "▁Hospital": 5900,
      "▁compos": 5901,
      "▁Jac": 5902,
      "▁enforce": 5903,
      "▁rapid": 5904,
      "names": 5905,
      "▁alle": 5906,
      "rence": 5907,
      "ansion": 5908,
      "▁contain": 5909,
      "Call": 5910,
      "bi": 5911,
      "▁AND": 5912,
      "▁CL": 5913,
      "▁Down": 5914,
      "▁bird": 5915,
      "▁trend": 5916,
      "▁extremely": 5917,
      "▁county": 5918,
      "abeth": 5919,
      "▁aren": 5920,
      "▁Pacific": 5921,
      "▁Offic": 5922,
      "▁Conf": 5923,
      "▁supposed": 5924,
      "eller": 5925,
      "inent": 5926,
      "agon": 5927,
      "Property": 5928,
      "▁alt": 5929,
      "▁Only": 5930,
      "▁Early": 5931,
      "lib": 5932,
      "▁core": 5933,
      "▁Korea": 5934,
      "▁Gal": 5935,
      "▁Priv": 5936,
      "oral": 5937,
      "▁Kenn": 5938,
      "▁Design": 5939,
      "▁follows": 5940,
      "▁creation": 5941,
      "▁edition": 5942,
      "▁Master": 5943,
      "false": 5944,
      "▁maintain": 5945,
      "urer": 5946,
      "IF": 5947,
      "▁standing": 5948,
      "ournament": 5949,
      "▁prices": 5950,
      "aste": 5951,
      "▁pm": 5952,
      "Read": 5953,
      "▁circumstances": 5954,
      "▁Spain": 5955,
      "▁Win": 5956,
      "▁domestic": 5957,
      "▁fellow": 5958,
      "while": 5959,
      ">(": 5960,
      "▁selection": 5961,
      "▁coun": 5962,
      "▁seek": 5963,
      "▁concerned": 5964,
      "▁owned": 5965,
      "osophy": 5966,
      "▁appearance": 5967,
      "▁smaller": 5968,
      "▁cab": 5969,
      "▁accepted": 5970,
      "▁customer": 5971,
      "▁judge": 5972,
      "▁advice": 5973,
      "▁greatest": 5974,
      "▁van": 5975,
      "▁Inf": 5976,
      "▁exchange": 5977,
      "▁Georgia": 5978,
      "▁sport": 5979,
      "ployment": 5980,
      "Su": 5981,
      "ECT": 5982,
      "▁files": 5983,
      "▁emphas": 5984,
      "▁bra": 5985,
      "▁diagn": 5986,
      "▁sets": 5987,
      "▁III": 5988,
      "▁actor": 5989,
      "▁draft": 5990,
      "▁calling": 5991,
      "▁spring": 5992,
      "Bl": 5993,
      "has": 5994,
      "▁attended": 5995,
      "▁nil": 5996,
      "long": 5997,
      "▁Michigan": 5998,
      ";</": 5999,
      "▁writers": 6000,
      "▁solutions": 6001,
      "ylvania": 6002,
      "Color": 6003,
      "how": 6004,
      "▁Indust": 6005,
      "▁scholars": 6006,
      "▁seat": 6007,
      "dev": 6008,
      "▁distribution": 6009,
      "▁showing": 6010,
      "▁explained": 6011,
      "▁matters": 6012,
      "▁GL": 6013,
      "Reg": 6014,
      "▁Eliz": 6015,
      "▁resident": 6016,
      "▁hotel": 6017,
      "▁Space": 6018,
      "phone": 6019,
      "▁Blue": 6020,
      "▁facility": 6021,
      "ipped": 6022,
      "▁Micro": 6023,
      "▁Cross": 6024,
      "endment": 6025,
      "][": 6026,
      "▁Ox": 6027,
      "Result": 6028,
      "▁android": 6029,
      "▁advantage": 6030,
      "ithub": 6031,
      "▁holds": 6032,
      "▁driving": 6033,
      "▁Game": 6034,
      "▁Environment": 6035,
      "▁pieces": 6036,
      "▁Stan": 6037,
      "aming": 6038,
      "▁Children": 6039,
      "▁plants": 6040,
      "▁Ari": 6041,
      "andom": 6042,
      "▁download": 6043,
      "▁offering": 6044,
      "ATE": 6045,
      "Model": 6046,
      "▁fant": 6047,
      "mir": 6048,
      "▁View": 6049,
      "▁quant": 6050,
      "▁tele": 6051,
      "▁Card": 6052,
      "▁los": 6053,
      "▁Records": 6054,
      "▁markets": 6055,
      "▁remaining": 6056,
      "Bar": 6057,
      "▁Three": 6058,
      "▁mobile": 6059,
      "▁represented": 6060,
      "▁Tri": 6061,
      "▁Call": 6062,
      "▁kit": 6063,
      "ERS": 6064,
      "finished": 6065,
      "▁attacks": 6066,
      "▁Twitter": 6067,
      "▁spoke": 6068,
      "▁waiting": 6069,
      "▁Code": 6070,
      "▁tool": 6071,
      "▁useful": 6072,
      "Override": 6073,
      "▁Football": 6074,
      "▁disp": 6075,
      "▁fan": 6076,
      "UM": 6077,
      "struct": 6078,
      "ls": 6079,
      "▁Constitution": 6080,
      "war": 6081,
      "▁mort": 6082,
      "ears": 6083,
      "▁Ohio": 6084,
      "▁soul": 6085,
      "ellect": 6086,
      "▁Posted": 6087,
      "aked": 6088,
      "ivery": 6089,
      "▁claimed": 6090,
      "real": 6091,
      "▁approved": 6092,
      "▁shut": 6093,
      "▁Fire": 6094,
      "▁Lim": 6095,
      "cknow": 6096,
      "rehens": 6097,
      "mail": 6098,
      "ras": 6099,
      "▁script": 6100,
      "izer": 6101,
      ")</": 6102,
      "▁substant": 6103,
      "▁debt": 6104,
      "▁industrial": 6105,
      "ghan": 6106,
      "▁Wild": 6107,
      "▁alternative": 6108,
      "▁earned": 6109,
      "search": 6110,
      "arks": 6111,
      "▁summ": 6112,
      "▁(\"": 6113,
      "▁Ca": 6114,
      "▁returns": 6115,
      "foot": 6116,
      "label": 6117,
      "▁Hor": 6118,
      "▁Saint": 6119,
      "ati": 6120,
      "igger": 6121,
      "▁volunte": 6122,
      "▁square": 6123,
      "▁Lic": 6124,
      "▁suc": 6125,
      "▁Log": 6126,
      "Response": 6127,
      "▁connected": 6128,
      "▁listen": 6129,
      "Don": 6130,
      "American": 6131,
      "scape": 6132,
      "▁survey": 6133,
      "▁houses": 6134,
      "▁excellent": 6135,
      "ESS": 6136,
      "▁fra": 6137,
      "▁«": 6138,
      "▁division": 6139,
      "▁Energy": 6140,
      "▁consc": 6141,
      "▁Field": 6142,
      "gener": 6143,
      "](": 6144,
      "method": 6145,
      "▁victory": 6146,
      "okes": 6147,
      "▁hy": 6148,
      "aks": 6149,
      "▁Rh": 6150,
      "gs": 6151,
      "▁fashion": 6152,
      "▁eat": 6153,
      "Table": 6154,
      "adow": 6155,
      "igen": 6156,
      "▁willing": 6157,
      "ga": 6158,
      "lishing": 6159,
      "▁driver": 6160,
      "▁width": 6161,
      "▁balance": 6162,
      "▁legislation": 6163,
      "stract": 6164,
      "▁Latin": 6165,
      "result": 6166,
      "▁flu": 6167,
      "▁Song": 6168,
      "▁posted": 6169,
      "▁tow": 6170,
      "▁revealed": 6171,
      "▁route": 6172,
      "▁Assembly": 6173,
      "adel": 6174,
      "▁volume": 6175,
      "▁helps": 6176,
      "System": 6177,
      "db": 6178,
      "▁legisl": 6179,
      "▁photo": 6180,
      "▁apart": 6181,
      "▁stopped": 6182,
      "▁injury": 6183,
      "rust": 6184,
      "▁ur": 6185,
      "▁subs": 6186,
      "▁positions": 6187,
      "Dis": 6188,
      "▁thank": 6189,
      "era": 6190,
      "▁stars": 6191,
      "▁perman": 6192,
      "elle": 6193,
      "▁ment": 6194,
      "▁Ha": 6195,
      "Client": 6196,
      "▁creative": 6197,
      "▁entirely": 6198,
      "▁bul": 6199,
      "User": 6200,
      "andemic": 6201,
      "ipl": 6202,
      "rees": 6203,
      "▁guy": 6204,
      "▁Look": 6205,
      "▁library": 6206,
      "▁candidate": 6207,
      "▁Those": 6208,
      "▁sched": 6209,
      "ographic": 6210,
      "gers": 6211,
      "▁testing": 6212,
      "sylvania": 6213,
      "▁latter": 6214,
      "▁revolution": 6215,
      "▁tells": 6216,
      "▁gender": 6217,
      "▁succeed": 6218,
      "▁movies": 6219,
      "▁negoti": 6220,
      "ker": 6221,
      "▁Mu": 6222,
      "▁inn": 6223,
      "▁Jr": 6224,
      "▁objects": 6225,
      "▁Summer": 6226,
      "▁Use": 6227,
      "▁fighting": 6228,
      "▁advanced": 6229,
      "va": 6230,
      "▁affected": 6231,
      "amm": 6232,
      "option": 6233,
      "▁corporate": 6234,
      "rs": 6235,
      "▁negative": 6236,
      "▁kid": 6237,
      "call": 6238,
      "otal": 6239,
      "▁earn": 6240,
      "pass": 6241,
      "▁crew": 6242,
      "▁graph": 6243,
      "▁Asian": 6244,
      "illy": 6245,
      "▁leaves": 6246,
      "▁Dar": 6247,
      "▁specified": 6248,
      "▁incred": 6249,
      "▁description": 6250,
      "▁($": 6251,
      "▁Po": 6252,
      "▁chapter": 6253,
      "▁adjust": 6254,
      "NS": 6255,
      "otic": 6256,
      "▁shares": 6257,
      "▁rid": 6258,
      "▁literature": 6259,
      "▁magazine": 6260,
      "▁rul": 6261,
      "▁cooper": 6262,
      "inton": 6263,
      "eler": 6264,
      "friend": 6265,
      "▁Little": 6266,
      "github": 6267,
      "hent": 6268,
      "▁Jews": 6269,
      "▁§": 6270,
      "▁singer": 6271,
      "▁Common": 6272,
      "▁council": 6273,
      "han": 6274,
      "rix": 6275,
      "arp": 6276,
      "▁Ap": 6277,
      "▁handle": 6278,
      "mat": 6279,
      "lywood": 6280,
      "ortunately": 6281,
      "▁Dig": 6282,
      "▁watching": 6283,
      "▁figures": 6284,
      "model": 6285,
      "▁occurred": 6286,
      "ye": 6287,
      "lication": 6288,
      "▁Trust": 6289,
      "▁happens": 6290,
      "▁decade": 6291,
      "▁Tay": 6292,
      "▁Cy": 6293,
      "'.": 6294,
      "▁exercise": 6295,
      "ested": 6296,
      "▁identify": 6297,
      "▁soldiers": 6298,
      "▁filed": 6299,
      "▁motion": 6300,
      "Query": 6301,
      "▁taught": 6302,
      "▁spending": 6303,
      "▁broadcast": 6304,
      "▁Major": 6305,
      "▁Pennsylvania": 6306,
      "▁Ins": 6307,
      "▁click": 6308,
      "▁Yet": 6309,
      "▁Nig": 6310,
      "wan": 6311,
      "▁accident": 6312,
      "▁municip": 6313,
      "▁functions": 6314,
      "▁nob": 6315,
      "hat": 6316,
      "▁agent": 6317,
      "▁replaced": 6318,
      "▁Die": 6319,
      "▁devices": 6320,
      "▁shift": 6321,
      "▁Est": 6322,
      "▁employment": 6323,
      "orders": 6324,
      "▁caught": 6325,
      "▁Prime": 6326,
      "▁proud": 6327,
      "▁union": 6328,
      "▁accompl": 6329,
      "▁Edward": 6330,
      "▁trees": 6331,
      "▁weather": 6332,
      "▁changing": 6333,
      "urd": 6334,
      "amber": 6335,
      "ossible": 6336,
      "▁Viet": 6337,
      "▁elections": 6338,
      "that": 6339,
      "▁Bern": 6340,
      "▁util": 6341,
      "▁agric": 6342,
      "osen": 6343,
      "▁Network": 6344,
      "▁Nations": 6345,
      "▁dollars": 6346,
      "▁aid": 6347,
      "▁traffic": 6348,
      "inois": 6349,
      "▁intelligence": 6350,
      "otype": 6351,
      "rich": 6352,
      "▁wa": 6353,
      "▁gain": 6354,
      "▁corner": 6355,
      "▁urban": 6356,
      "▁Mic": 6357,
      "▁supporting": 6358,
      "position": 6359,
      "▁Prince": 6360,
      "open": 6361,
      "orters": 6362,
      "▁Sea": 6363,
      "▁constitution": 6364,
      "▁sides": 6365,
      "▁indeed": 6366,
      "umni": 6367,
      "GB": 6368,
      "▁fuel": 6369,
      "ributes": 6370,
      "▁Run": 6371,
      "▁Jun": 6372,
      "arters": 6373,
      "▁assistance": 6374,
      "▁researchers": 6375,
      "▁Aud": 6376,
      "▁Brook": 6377,
      "▁advis": 6378,
      "eah": 6379,
      "▁acknow": 6380,
      "▁Navy": 6381,
      "▁renew": 6382,
      "ée": 6383,
      "adium": 6384,
      "utely": 6385,
      "Ref": 6386,
      "▁minister": 6387,
      "▁Lear": 6388,
      "▁vent": 6389,
      "▁Coll": 6390,
      "obe": 6391,
      "▁southern": 6392,
      "▁occasion": 6393,
      "▁debate": 6394,
      "▁exec": 6395,
      "▁filled": 6396,
      "▁alleged": 6397,
      "ailed": 6398,
      "▁fish": 6399,
      "tered": 6400,
      "▁Rog": 6401,
      "▁animal": 6402,
      "▁incorpor": 6403,
      "▁auto": 6404,
      "▁haven": 6405,
      "▁visual": 6406,
      "rovers": 6407,
      "▁agencies": 6408,
      "▁statements": 6409,
      "max": 6410,
      "▁Donald": 6411,
      "▁involve": 6412,
      "▁ast": 6413,
      "▁Sus": 6414,
      "image": 6415,
      "▁Thus": 6416,
      "ocument": 6417,
      "Method": 6418,
      "▁relationships": 6419,
      "rowser": 6420,
      "ooth": 6421,
      "HT": 6422,
      "▁conversation": 6423,
      "▁serves": 6424,
      "▁storage": 6425,
      "▁virtual": 6426,
      "mann": 6427,
      "▁guard": 6428,
      "▁teachers": 6429,
      "▁definitely": 6430,
      "▁forg": 6431,
      "▁Broad": 6432,
      "▁Mid": 6433,
      "Met": 6434,
      "▁largely": 6435,
      "▁drop": 6436,
      "▁Eth": 6437,
      "▁jur": 6438,
      "▁Orig": 6439,
      "▁None": 6440,
      "▁combined": 6441,
      "▁Steve": 6442,
      "first": 6443,
      "▁payment": 6444,
      "▁guarant": 6445,
      "asters": 6446,
      "▁margin": 6447,
      "▁Capt": 6448,
      "▁extent": 6449,
      "▁Mah": 6450,
      "▁Real": 6451,
      "pload": 6452,
      "▁guess": 6453,
      "▁fundament": 6454,
      "▁Eastern": 6455,
      ".’": 6456,
      "aph": 6457,
      "▁thanks": 6458,
      "▁Theatre": 6459,
      "PL": 6460,
      "▁Elizabeth": 6461,
      "▁guide": 6462,
      "asks": 6463,
      "▁pool": 6464,
      "ounded": 6465,
      "▁prote": 6466,
      "ups": 6467,
      "▁Adv": 6468,
      "▁Photo": 6469,
      "strong": 6470,
      "▁Object": 6471,
      "oute": 6472,
      "▁dynam": 6473,
      "▁<<": 6474,
      "▁Ray": 6475,
      "▁educational": 6476,
      "Stream": 6477,
      "oster": 6478,
      "kin": 6479,
      "▁explain": 6480,
      "▁smart": 6481,
      "TY": 6482,
      "▁baby": 6483,
      "▁Columbia": 6484,
      "At": 6485,
      "▁duty": 6486,
      "kes": 6487,
      "ishes": 6488,
      "aval": 6489,
      "▁Saf": 6490,
      "▁©": 6491,
      "▁vac": 6492,
      "▁module": 6493,
      "Group": 6494,
      "▁IT": 6495,
      "▁stations": 6496,
      "▁Hu": 6497,
      "Builder": 6498,
      "▁begins": 6499,
      "▁infrastructure": 6500,
      "▁monitor": 6501,
      "member": 6502,
      "▁metal": 6503,
      "▁clinical": 6504,
      "anged": 6505,
      "athan": 6506,
      "▁goods": 6507,
      "▁rom": 6508,
      "▁vs": 6509,
      "▁dry": 6510,
      "▁arts": 6511,
      "▁render": 6512,
      "▁secure": 6513,
      "▁flight": 6514,
      "▁perspective": 6515,
      "▁Coast": 6516,
      "▁Philipp": 6517,
      "▁Jersey": 6518,
      "▁Spring": 6519,
      "▁albums": 6520,
      "▁Tem": 6521,
      "▁roles": 6522,
      "vin": 6523,
      "car": 6524,
      "▁partners": 6525,
      "▁suggested": 6526,
      "▁Carl": 6527,
      "▁estimated": 6528,
      "draw": 6529,
      "ilit": 6530,
      "▁winter": 6531,
      "▁stress": 6532,
      "▁specifically": 6533,
      "▁dance": 6534,
      "▁theme": 6535,
      "▁charges": 6536,
      "My": 6537,
      "▁bond": 6538,
      "▁promote": 6539,
      "ancer": 6540,
      "▁Non": 6541,
      "▁Illinois": 6542,
      "▁troops": 6543,
      "▁extended": 6544,
      "])": 6545,
      "▁commitment": 6546,
      "▁bg": 6547,
      "▁Sher": 6548,
      "▁decre": 6549,
      "▁coal": 6550,
      "▁aspects": 6551,
      "uls": 6552,
      "Comm": 6553,
      "ql": 6554,
      "center": 6555,
      "dl": 6556,
      "▁gall": 6557,
      "▁Fig": 6558,
      "▁Base": 6559,
      "▁acting": 6560,
      "last": 6561,
      "▁familiar": 6562,
      "▁processes": 6563,
      "iciency": 6564,
      "▁Kim": 6565,
      "▁Ron": 6566,
      "▁motor": 6567,
      "raine": 6568,
      "▁abuse": 6569,
      "CS": 6570,
      "igrants": 6571,
      "anges": 6572,
      "onto": 6573,
      "rical": 6574,
      "▁Ol": 6575,
      "▁leads": 6576,
      "▁Empire": 6577,
      "▁convert": 6578,
      "▁une": 6579,
      "▁reduced": 6580,
      "othes": 6581,
      "iform": 6582,
      "Per": 6583,
      "▁distinct": 6584,
      "▁Instead": 6585,
      "▁Rom": 6586,
      "bury": 6587,
      "▁Lew": 6588,
      "▁Circ": 6589,
      "▁forth": 6590,
      "Image": 6591,
      "▁Walk": 6592,
      "osit": 6593,
      "▁mouth": 6594,
      "▁causes": 6595,
      "unc": 6596,
      "▁Wales": 6597,
      "▁inspired": 6598,
      "etts": 6599,
      "▁Wat": 6600,
      "▁Food": 6601,
      "ydro": 6602,
      "▁hundreds": 6603,
      "▁jump": 6604,
      "▁remark": 6605,
      "GL": 6606,
      "▁\"\"\"": 6607,
      "dir": 6608,
      "▁Mov": 6609,
      "▁edge": 6610,
      "▁Again": 6611,
      "aud": 6612,
      "bb": 6613,
      "▁planned": 6614,
      "iday": 6615,
      "▁lose": 6616,
      "android": 6617,
      "▁allowing": 6618,
      "▁registered": 6619,
      "heast": 6620,
      "▁bodies": 6621,
      "ja": 6622,
      "▁Night": 6623,
      "▁Thanks": 6624,
      "amples": 6625,
      "iner": 6626,
      "▁Brad": 6627,
      "▁Radio": 6628,
      "▁weapons": 6629,
      "▁veter": 6630,
      "▁AR": 6631,
      "▁studied": 6632,
      "pet": 6633,
      "▁bringing": 6634,
      "▁stone": 6635,
      "Fl": 6636,
      "▁quiet": 6637,
      "orough": 6638,
      "onym": 6639,
      "▁rain": 6640,
      "▁Tenn": 6641,
      "▁channel": 6642,
      "ffee": 6643,
      "▁Scotland": 6644,
      "▁northern": 6645,
      "ervative": 6646,
      "▁remov": 6647,
      "▁producer": 6648,
      "▁authors": 6649,
      "▁keeping": 6650,
      "▁Son": 6651,
      "indow": 6652,
      "▁mir": 6653,
      "▁elim": 6654,
      "▁Ram": 6655,
      "ifications": 6656,
      "▁Bal": 6657,
      "usal": 6658,
      "▁emergency": 6659,
      "coh": 6660,
      "▁coverage": 6661,
      "▁contemporary": 6662,
      "client": 6663,
      "▁weekend": 6664,
      "BI": 6665,
      "ypes": 6666,
      "▁AD": 6667,
      "▁victims": 6668,
      "▁Article": 6669,
      "▁Ministry": 6670,
      "▁Dub": 6671,
      "▁acts": 6672,
      "▁god": 6673,
      "iveness": 6674,
      "inson": 6675,
      "ez": 6676,
      "▁Fer": 6677,
      "▁ven": 6678,
      "▁pandemic": 6679,
      "abs": 6680,
      "Date": 6681,
      "▁powers": 6682,
      "▁ordered": 6683,
      "▁drugs": 6684,
      "▁historic": 6685,
      "▁existence": 6686,
      "▁retail": 6687,
      "▁Sym": 6688,
      "button": 6689,
      "▁Lo": 6690,
      "▁regulations": 6691,
      "▁Vill": 6692,
      "▁granted": 6693,
      "▁speaking": 6694,
      "▁adopted": 6695,
      "▁sand": 6696,
      "▁Pass": 6697,
      "▁lie": 6698,
      "▁adding": 6699,
      "▁regul": 6700,
      "▁finish": 6701,
      "emplate": 6702,
      "▁instrument": 6703,
      "▁Fair": 6704,
      "▁Kent": 6705,
      "▁server": 6706,
      "▁relatively": 6707,
      "▁Bra": 6708,
      "unfinished": 6709,
      "▁primarily": 6710,
      "▁Amazon": 6711,
      "water": 6712,
      "▁Init": 6713,
      "▁sitting": 6714,
      "▁switch": 6715,
      "OG": 6716,
      "▁nom": 6717,
      "PD": 6718,
      "achus": 6719,
      "▁engineering": 6720,
      "▁Jean": 6721,
      "▁treated": 6722,
      "▁Anal": 6723,
      "▁vehicles": 6724,
      "??": 6725,
      "options": 6726,
      "▁iron": 6727,
      "▁Rome": 6728,
      "flow": 6729,
      "HS": 6730,
      "▁wonderful": 6731,
      "▁Anth": 6732,
      "▁Cub": 6733,
      "ela": 6734,
      "▁transition": 6735,
      "▁obtained": 6736,
      "▁Administration": 6737,
      "▁Foreign": 6738,
      "▁hall": 6739,
      "▁Members": 6740,
      "▁mand": 6741,
      "▁Chapter": 6742,
      "spec": 6743,
      "prene": 6744,
      "▁awards": 6745,
      "▁Apple": 6746,
      "▁experts": 6747,
      "istration": 6748,
      "▁intern": 6749,
      "resents": 6750,
      "▁advent": 6751,
      "▁Member": 6752,
      "▁tests": 6753,
      "▁Cro": 6754,
      "umin": 6755,
      "▁Oxford": 6756,
      "event": 6757,
      "Util": 6758,
      "then": 6759,
      "▁tit": 6760,
      "ighter": 6761,
      "▁classic": 6762,
      "▁spons": 6763,
      "hetic": 6764,
      "requ": 6765,
      "▁announce": 6766,
      "Ass": 6767,
      "▁recip": 6768,
      "▁pair": 6769,
      "▁desire": 6770,
      "jav": 6771,
      "args": 6772,
      "▁recording": 6773,
      "reprene": 6774,
      "▁campus": 6775,
      "▁weak": 6776,
      "▁minimum": 6777,
      "▁twice": 6778,
      "▁employee": 6779,
      "▁starts": 6780,
      "df": 6781,
      "▁expressed": 6782,
      "elly": 6783,
      "▁neighborhood": 6784,
      "▁slightly": 6785,
      "▁Following": 6786,
      "▁Medicine": 6787,
      "eper": 6788,
      "▁easier": 6789,
      "agraph": 6790,
      "len": 6791,
      "burgh": 6792,
      "ampion": 6793,
      "▁dress": 6794,
      "▁seeking": 6795,
      "▁healthy": 6796,
      "night": 6797,
      "▁confirmed": 6798,
      "essions": 6799,
      "ceived": 6800,
      "▁sounds": 6801,
      "mosp": 6802,
      "▁->": 6803,
      "▁cloud": 6804,
      "▁assets": 6805,
      "▁flat": 6806,
      "▁Beach": 6807,
      "▁bgcolor": 6808,
      "▁broken": 6809,
      "▁Books": 6810,
      "▁structures": 6811,
      "▁Tax": 6812,
      "ologist": 6813,
      "▁scientists": 6814,
      "▁feat": 6815,
      "query": 6816,
      "▁Check": 6817,
      "▁license": 6818,
      "▁gift": 6819,
      "▁Tal": 6820,
      "creen": 6821,
      "▁widely": 6822,
      "▁##": 6823,
      "▁bomb": 6824,
      "▁Guard": 6825,
      "▁combination": 6826,
      "▁letters": 6827,
      "▁empty": 6828,
      "▁describe": 6829,
      "▁exception": 6830,
      "▁asking": 6831,
      "adelph": 6832,
      "anguages": 6833,
      "▁Sciences": 6834,
      "▁Afghan": 6835,
      "hire": 6836,
      "▁Light": 6837,
      "▁gather": 6838,
      "RI": 6839,
      "free": 6840,
      "Status": 6841,
      "adata": 6842,
      "▁scope": 6843,
      "awn": 6844,
      "▁Represent": 6845,
      "▁contrast": 6846,
      "▁bes": 6847,
      "▁maximum": 6848,
      "▁syn": 6849,
      "EW": 6850,
      "▁declared": 6851,
      "▁Stephen": 6852,
      "▁horse": 6853,
      "fa": 6854,
      "achusetts": 6855,
      "▁Rod": 6856,
      "▁Marg": 6857,
      "hered": 6858,
      "▁Wis": 6859,
      "iro": 6860,
      "▁Taylor": 6861,
      "▁Phys": 6862,
      "▁photograph": 6863,
      "▁hyp": 6864,
      "▁Girl": 6865,
      "▁brings": 6866,
      "▁refuge": 6867,
      "▁typically": 6868,
      "hips": 6869,
      "▁revenue": 6870,
      "lines": 6871,
      "adding": 6872,
      "opyright": 6873,
      "person": 6874,
      "merce": 6875,
      "▁owners": 6876,
      "aine": 6877,
      "▁receiving": 6878,
      "▁facts": 6879,
      "ockey": 6880,
      "▁Equ": 6881,
      "▁Vice": 6882,
      "agged": 6883,
      "▁putting": 6884,
      "Sp": 6885,
      "agram": 6886,
      "▁thoughts": 6887,
      "▁massive": 6888,
      "▁Iss": 6889,
      "rane": 6890,
      "▁export": 6891,
      "▁cerem": 6892,
      "Writ": 6893,
      "▁heav": 6894,
      "▁examples": 6895,
      "▁Olympic": 6896,
      "▁Psych": 6897,
      "▁Governor": 6898,
      "▁accounts": 6899,
      "▁mode": 6900,
      "▁qui": 6901,
      "▁internet": 6902,
      "▁dangerous": 6903,
      "ellectual": 6904,
      "▁Bul": 6905,
      "▁Dun": 6906,
      "▁Exper": 6907,
      "▁accord": 6908,
      "_,": 6909,
      "ugin": 6910,
      "▁Kong": 6911,
      "▁charged": 6912,
      "▁pu": 6913,
      "▁chemical": 6914,
      "▁ultimately": 6915,
      "▁passeng": 6916,
      "▁voc": 6917,
      "PC": 6918,
      "▁vast": 6919,
      "▁guys": 6920,
      "isms": 6921,
      "▁au": 6922,
      "▁ing": 6923,
      "IO": 6924,
      "Sub": 6925,
      "Input": 6926,
      "▁opposition": 6927,
      "End": 6928,
      "ART": 6929,
      "▁category": 6930,
      "▁hun": 6931,
      "▁impossible": 6932,
      "ifer": 6933,
      "stone": 6934,
      "adelphia": 6935,
      "expected": 6936,
      "Conn": 6937,
      "mm": 6938,
      "▁recover": 6939,
      "rine": 6940,
      "Ret": 6941,
      "▁fat": 6942,
      "▁sufficient": 6943,
      "▁boys": 6944,
      "▁bought": 6945,
      "zer": 6946,
      "▁Bell": 6947,
      "▁telling": 6948,
      "iously": 6949,
      "▁boolean": 6950,
      "uations": 6951,
      "▁honest": 6952,
      "▁rough": 6953,
      "▁pod": 6954,
      "ruption": 6955,
      "▁minute": 6956,
      "ename": 6957,
      "▁soci": 6958,
      "▁Note": 6959,
      "▁mine": 6960,
      "▁Il": 6961,
      "oding": 6962,
      "▁DE": 6963,
      "▁unknown": 6964,
      "▁western": 6965,
      "▁Hand": 6966,
      "ao": 6967,
      "istant": 6968,
      "▁Pen": 6969,
      "▁shel": 6970,
      "▁pra": 6971,
      "▁frag": 6972,
      "▁Massachusetts": 6973,
      "▁Op": 6974,
      "▁manage": 6975,
      "▁Luc": 6976,
      "▁predict": 6977,
      "▁repeated": 6978,
      "iments": 6979,
      "▁younger": 6980,
      "awa": 6981,
      "outs": 6982,
      "ALL": 6983,
      "ading": 6984,
      "mal": 6985,
      "▁panel": 6986,
      "▁carbon": 6987,
      "▁upper": 6988,
      "▁Revolution": 6989,
      "▁incident": 6990,
      "▁decide": 6991,
      "▁possibly": 6992,
      "▁Wilson": 6993,
      "ipping": 6994,
      "Head": 6995,
      "agues": 6996,
      "aret": 6997,
      "▁medium": 6998,
      "ether": 6999,
      "▁delivery": 7000,
      "▁retire": 7001,
      "▁Hun": 7002,
      "▁Bon": 7003,
      "▁underst": 7004,
      "hist": 7005,
      "▁Hom": 7006,
      "▁Ur": 7007,
      "▁processing": 7008,
      "▁worldwide": 7009,
      "yers": 7010,
      "▁newspaper": 7011,
      "▁candidates": 7012,
      "▁bright": 7013,
      "▁implementation": 7014,
      "▁func": 7015,
      "▁ends": 7016,
      "Component": 7017,
      "▁compens": 7018,
      "▁Mir": 7019,
      "▁thousand": 7020,
      "ko": 7021,
      "▁basketball": 7022,
      "▁worse": 7023,
      "▁principles": 7024,
      "close": 7025,
      "▁entitled": 7026,
      "▁Hong": 7027,
      "▁Hy": 7028,
      "ila": 7029,
      "hop": 7030,
      "▁intent": 7031,
      "▁storm": 7032,
      "▁controvers": 7033,
      "▁chain": 7034,
      "▁Corporation": 7035,
      "▁TO": 7036,
      "▁surg": 7037,
      "▁drama": 7038,
      "▁oppos": 7039,
      "▁millions": 7040,
      "▁frame": 7041,
      "▁scored": 7042,
      "iden": 7043,
      "▁Les": 7044,
      "tx": 7045,
      "▁Labor": 7046,
      "bro": 7047,
      "▁rural": 7048,
      "chester": 7049,
      "SC": 7050,
      "ormal": 7051,
      "▁Fox": 7052,
      "Action": 7053,
      "▁athlet": 7054,
      "▁warn": 7055,
      "icide": 7056,
      "▁Live": 7057,
      "▁Es": 7058,
      "▁seasons": 7059,
      "ensity": 7060,
      "▁actors": 7061,
      "▁graduate": 7062,
      "enant": 7063,
      "▁spiritual": 7064,
      "▁icon": 7065,
      "▁pictures": 7066,
      "They": 7067,
      "▁portion": 7068,
      "header": 7069,
      "▁Death": 7070,
      "prise": 7071,
      "rum": 7072,
      "TV": 7073,
      "Rec": 7074,
      "▁Type": 7075,
      "duction": 7076,
      "▁Prem": 7077,
      "▁suit": 7078,
      "▁definition": 7079,
      "▁factor": 7080,
      "sem": 7081,
      "▁Current": 7082,
      "▁vul": 7083,
      "▁root": 7084,
      "AY": 7085,
      "▁Harry": 7086,
      "▁photos": 7087,
      "▁Ent": 7088,
      "▁represents": 7089,
      "▁MP": 7090,
      "▁tun": 7091,
      "▁throws": 7092,
      "▁Bush": 7093,
      "▁unable": 7094,
      "▁nomin": 7095,
      "▁courts": 7096,
      "▁templ": 7097,
      "Fil": 7098,
      "▁delivered": 7099,
      "▁AL": 7100,
      "▁Pers": 7101,
      "▁Right": 7102,
      "target": 7103,
      "lyn": 7104,
      "▁NULL": 7105,
      "▁pour": 7106,
      "▁provisions": 7107,
      "ownt": 7108,
      "inity": 7109,
      "▁aband": 7110,
      "▁sought": 7111,
      "▁faculty": 7112,
      "isted": 7113,
      "ads": 7114,
      "▁adults": 7115,
      "▁struggle": 7116,
      "▁vo": 7117,
      "▁ton": 7118,
      "Instance": 7119,
      "uable": 7120,
      "▁buff": 7121,
      "phy": 7122,
      "essed": 7123,
      "AV": 7124,
      "Exp": 7125,
      "▁Among": 7126,
      "▁banks": 7127,
      "▁Engineering": 7128,
      "▁Officer": 7129,
      "▁Such": 7130,
      "taining": 7131,
      "▁Alexander": 7132,
      "▁camera": 7133,
      "▁bridge": 7134,
      "▁las": 7135,
      "▁chosen": 7136,
      "Source": 7137,
      "▁orders": 7138,
      "▁teach": 7139,
      "▁nations": 7140,
      "rome": 7141,
      "▁Cat": 7142,
      "▁Point": 7143,
      "▁furn": 7144,
      "profit": 7145,
      "▁cart": 7146,
      "▁publication": 7147,
      "▁Albert": 7148,
      "▁fiction": 7149,
      "▁surrounding": 7150,
      "Token": 7151,
      "▁differences": 7152,
      "▁Affairs": 7153,
      "▁EX": 7154,
      "▁Ren": 7155,
      "▁feels": 7156,
      "asp": 7157,
      "Act": 7158,
      "▁component": 7159,
      "▁mixed": 7160,
      "▁extends": 7161,
      "iture": 7162,
      "▁lies": 7163,
      "entry": 7164,
      "▁mainly": 7165,
      "▁highlight": 7166,
      "elines": 7167,
      "▁Corn": 7168,
      "Off": 7169,
      "Null": 7170,
      "▁Mean": 7171,
      "▁discussed": 7172,
      "▁impress": 7173,
      "ifact": 7174,
      "mo": 7175,
      "▁relative": 7176,
      "eger": 7177,
      "▁pit": 7178,
      "▁enjoyed": 7179,
      "array": 7180,
      "apped": 7181,
      "▁governments": 7182,
      "▁engaged": 7183,
      "shire": 7184,
      "apes": 7185,
      "▁obtain": 7186,
      "ideos": 7187,
      "▁kick": 7188,
      "plom": 7189,
      "▁streets": 7190,
      "▁resolution": 7191,
      "FC": 7192,
      "▁organized": 7193,
      "▁temperature": 7194,
      "▁technologies": 7195,
      "iversary": 7196,
      "opher": 7197,
      "▁reviews": 7198,
      "perties": 7199,
      "▁dropped": 7200,
      "▁moral": 7201,
      "bal": 7202,
      "TO": 7203,
      "edu": 7204,
      "▁batter": 7205,
      "▁snow": 7206,
      "▁winner": 7207,
      "Base": 7208,
      "▁Islamic": 7209,
      "btn": 7210,
      "rehensive": 7211,
      "▁coordin": 7212,
      "▁Though": 7213,
      "▁Toronto": 7214,
      "▁Ont": 7215,
      "▁provision": 7216,
      "UE": 7217,
      "hr": 7218,
      "▁adult": 7219,
      "▁Gi": 7220,
      "▁Turn": 7221,
      "▁arrested": 7222,
      "▁Philadelphia": 7223,
      "sen": 7224,
      "▁Davis": 7225,
      "▁Battle": 7226,
      "rog": 7227,
      "isd": 7228,
      "▁tournament": 7229,
      "▁Olympics": 7230,
      "▁motiv": 7231,
      "▁Naz": 7232,
      "[\"": 7233,
      "▁stands": 7234,
      "iration": 7235,
      "▁por": 7236,
      "sole": 7237,
      "case": 7238,
      "after": 7239,
      "▁Thank": 7240,
      "▁fill": 7241,
      "▁Berlin": 7242,
      "▁extensive": 7243,
      "weight": 7244,
      "▁readers": 7245,
      "▁passing": 7246,
      "▁frequently": 7247,
      "▁Pu": 7248,
      "ali": 7249,
      "▁phen": 7250,
      "▁delay": 7251,
      "▁Modern": 7252,
      "▁Lady": 7253,
      "▁OR": 7254,
      "▁colle": 7255,
      "▁tom": 7256,
      "▁flood": 7257,
      "uties": 7258,
      "▁Israeli": 7259,
      "TC": 7260,
      "▁participants": 7261,
      "▁DC": 7262,
      "▁Hard": 7263,
      "erves": 7264,
      "▁Bang": 7265,
      "▁forget": 7266,
      "▁mel": 7267,
      "only": 7268,
      "holders": 7269,
      "▁Creat": 7270,
      "▁stret": 7271,
      "▁Hollywood": 7272,
      "rator": 7273,
      "▁resulting": 7274,
      "▁visitors": 7275,
      "▁increasingly": 7276,
      "▁fasc": 7277,
      "▁Support": 7278,
      "▁shock": 7279,
      "▁Turkey": 7280,
      "\").": 7281,
      "▁sharing": 7282,
      "▁walking": 7283,
      "iders": 7284,
      "amil": 7285,
      "▁Lind": 7286,
      "▁initially": 7287,
      "ifies": 7288,
      "iki": 7289,
      "een": 7290,
      "request": 7291,
      "▁possibility": 7292,
      "▁enforcement": 7293,
      "▁{}": 7294,
      "\"),": 7295,
      "▁Univers": 7296,
      "▁prospect": 7297,
      "vi": 7298,
      "Nav": 7299,
      "DS": 7300,
      "▁walls": 7301,
      "▁Mill": 7302,
      "▁Colorado": 7303,
      "▁suffered": 7304,
      "ibilities": 7305,
      "AME": 7306,
      "ira": 7307,
      "Oper": 7308,
      "▁Ash": 7309,
      "Sty": 7310,
      "({": 7311,
      "▁regions": 7312,
      "pes": 7313,
      "▁]": 7314,
      "▁closely": 7315,
      "▁attorney": 7316,
      "IST": 7317,
      "?'": 7318,
      "anna": 7319,
      "hemat": 7320,
      "▁Economic": 7321,
      "▁Phot": 7322,
      "▁turns": 7323,
      "▁walked": 7324,
      "ulpt": 7325,
      "’,": 7326,
      "▁Country": 7327,
      "▁Name": 7328,
      "▁alongside": 7329,
      "▁locations": 7330,
      "▁Eric": 7331,
      "aded": 7332,
      "acter": 7333,
      "▁Sign": 7334,
      "▁liqu": 7335,
      "\\\\": 7336,
      "cal": 7337,
      "’.": 7338,
      "uted": 7339,
      "▁waste": 7340,
      "▁Access": 7341,
      "▁planet": 7342,
      "▁mo": 7343,
      "ternoon": 7344,
      "ello": 7345,
      "▁Local": 7346,
      "▁plot": 7347,
      "▁observed": 7348,
      "olved": 7349,
      "rency": 7350,
      "irms": 7351,
      "▁sweet": 7352,
      "arser": 7353,
      "▁narrow": 7354,
      "gor": 7355,
      "▁oblig": 7356,
      "▁teen": 7357,
      "issions": 7358,
      "▁Nic": 7359,
      "append": 7360,
      "▁neither": 7361,
      "thur": 7362,
      "▁welcome": 7363,
      "▁Ott": 7364,
      "▁Holy": 7365,
      "▁recognition": 7366,
      "aints": 7367,
      "▁IP": 7368,
      "▁alleg": 7369,
      "REF": 7370,
      "▁rac": 7371,
      "▁Santa": 7372,
      "▁interface": 7373,
      "▁actress": 7374,
      "null": 7375,
      "▁Adam": 7376,
      "Che": 7377,
      "▁pure": 7378,
      "▁Sat": 7379,
      "▁Princ": 7380,
      "▁Rest": 7381,
      "▁cup": 7382,
      "onic": 7383,
      "▁Dutch": 7384,
      "▁cro": 7385,
      "▁Later": 7386,
      "Point": 7387,
      "owed": 7388,
      "Content": 7389,
      "▁namespace": 7390,
      "▁medicine": 7391,
      "▁loan": 7392,
      "utation": 7393,
      "▁Story": 7394,
      "▁fixed": 7395,
      "Attribute": 7396,
      "▁association": 7397,
      "▁batt": 7398,
      "▁reasonable": 7399,
      "▁ourselves": 7400,
      "▁painting": 7401,
      "▁closer": 7402,
      "▁rooms": 7403,
      "▁acquired": 7404,
      "▁craft": 7405,
      "▁Still": 7406,
      "AF": 7407,
      "▁explore": 7408,
      "▁sole": 7409,
      "ele": 7410,
      "▁programme": 7411,
      "endar": 7412,
      "▁beauty": 7413,
      "▁prove": 7414,
      "▁shooting": 7415,
      "▁arguments": 7416,
      "▁Military": 7417,
      "▁risks": 7418,
      "▁undert": 7419,
      "▁Key": 7420,
      "▁significantly": 7421,
      "▁+=": 7422,
      "Run": 7423,
      "▁Page": 7424,
      "▁Independ": 7425,
      "conn": 7426,
      "Equal": 7427,
      "▁sight": 7428,
      "perial": 7429,
      "▁signs": 7430,
      "ABLE": 7431,
      "((": 7432,
      "▁visited": 7433,
      "▁atmosp": 7434,
      "▁wine": 7435,
      "ima": 7436,
      "olec": 7437,
      "▁tracks": 7438,
      "▁Ms": 7439,
      "▁marked": 7440,
      "▁relation": 7441,
      "xml": 7442,
      "crete": 7443,
      "▁selling": 7444,
      "▁NC": 7445,
      "▁excited": 7446,
      "▁ongoing": 7447,
      "dep": 7448,
      "ebug": 7449,
      "property": 7450,
      "▁successfully": 7451,
      "alty": 7452,
      "tenance": 7453,
      "TP": 7454,
      "▁Watch": 7455,
      "olis": 7456,
      "▁Rose": 7457,
      "▁personnel": 7458,
      "eft": 7459,
      "▁Bru": 7460,
      "▁Did": 7461,
      "▁flex": 7462,
      "Part": 7463,
      "Options": 7464,
      "▁favour": 7465,
      "▁formal": 7466,
      "imer": 7467,
      "How": 7468,
      "▁relief": 7469,
      "▁BBC": 7470,
      "oln": 7471,
      "mont": 7472,
      "▁territory": 7473,
      "▁diverse": 7474,
      "▁Line": 7475,
      "udi": 7476,
      "▁Father": 7477,
      "▁sad": 7478,
      "▁grown": 7479,
      "▁enemy": 7480,
      "▁font": 7481,
      "▁symbol": 7482,
      "▁Place": 7483,
      "▁mountain": 7484,
      "▁habit": 7485,
      "▁remind": 7486,
      "wing": 7487,
      "▁participate": 7488,
      "oses": 7489,
      "author": 7490,
      "itarian": 7491,
      "weet": 7492,
      "▁wal": 7493,
      "▁broke": 7494,
      "▁ideal": 7495,
      "▁principal": 7496,
      "▁detailed": 7497,
      "▁Action": 7498,
      "▁elimin": 7499,
      "▁efficient": 7500,
      "▁lect": 7501,
      "umes": 7502,
      "▁database": 7503,
      "ORT": 7504,
      "nesota": 7505,
      "▁Ah": 7506,
      "track": 7507,
      "▁ships": 7508,
      "sex": 7509,
      "▁phase": 7510,
      "apse": 7511,
      "▁sympt": 7512,
      "▁Ven": 7513,
      "lets": 7514,
      "▁Ly": 7515,
      "▁techniques": 7516,
      "▁achieved": 7517,
      "▁flag": 7518,
      "height": 7519,
      "▁vess": 7520,
      "▁Cost": 7521,
      "ategory": 7522,
      "▁solar": 7523,
      "▁Palestin": 7524,
      "▁championship": 7525,
      "apore": 7526,
      "Handler": 7527,
      "▁reporting": 7528,
      "▁Start": 7529,
      "ois": 7530,
      "▁humans": 7531,
      "▁counsel": 7532,
      "▁architecture": 7533,
      "▁Ford": 7534,
      "▁Fac": 7535,
      "py": 7536,
      "ifest": 7537,
      "fast": 7538,
      "Go": 7539,
      "▁matches": 7540,
      "▁ring": 7541,
      "▁restaurant": 7542,
      "▁retired": 7543,
      "▁conven": 7544,
      "▁nearby": 7545,
      "▁Fa": 7546,
      "▁Nick": 7547,
      "avor": 7548,
      "cohol": 7549,
      "raged": 7550,
      "▁rein": 7551,
      "osa": 7552,
      "aration": 7553,
      "▁Ba": 7554,
      "▁external": 7555,
      "quir": 7556,
      "▁Register": 7557,
      "▁emotional": 7558,
      "▁reco": 7559,
      "▁Gree": 7560,
      "▁absolutely": 7561,
      "▁isol": 7562,
      "▁suggests": 7563,
      "DP": 7564,
      "▁Ariz": 7565,
      "▁bear": 7566,
      "▁confidence": 7567,
      "▁NS": 7568,
      "lers": 7569,
      "BO": 7570,
      "older": 7571,
      "▁Ukraine": 7572,
      "▁chart": 7573,
      "▁strict": 7574,
      "▁Bible": 7575,
      "▁profile": 7576,
      "▁sin": 7577,
      "▁expansion": 7578,
      "ensed": 7579,
      "▁Financial": 7580,
      "▁reli": 7581,
      "SON": 7582,
      "ture": 7583,
      "hus": 7584,
      "bell": 7585,
      "▁Cambridge": 7586,
      "aka": 7587,
      "▁approval": 7588,
      "▁Hou": 7589,
      "▁meetings": 7590,
      "ordan": 7591,
      "navbar": 7592,
      "service": 7593,
      "▁Make": 7594,
      "▁degrees": 7595,
      "worth": 7596,
      "▁assistant": 7597,
      "▁finds": 7598,
      "▁stick": 7599,
      "▁enable": 7600,
      "Load": 7601,
      "▁Treat": 7602,
      "▁seconds": 7603,
      "AND": 7604,
      "▁NOT": 7605,
      "▁odd": 7606,
      "▁trouble": 7607,
      "ortion": 7608,
      "vard": 7609,
      "▁comedy": 7610,
      "itals": 7611,
      "▁Source": 7612,
      "▁bath": 7613,
      "▁riv": 7614,
      "▁discipl": 7615,
      "▁permanent": 7616,
      "▁judgment": 7617,
      "▁kitchen": 7618,
      "▁solo": 7619,
      "etch": 7620,
      "▁collected": 7621,
      "▁silver": 7622,
      "▁consumer": 7623,
      "kind": 7624,
      "LC": 7625,
      "▁thick": 7626,
      "▁Li": 7627,
      "▁Jenn": 7628,
      "▁foundation": 7629,
      "▁strategic": 7630,
      "▁courses": 7631,
      "▁facing": 7632,
      "▁victim": 7633,
      "▁Budd": 7634,
      "▁discrim": 7635,
      "▁fee": 7636,
      "▁turning": 7637,
      "pers": 7638,
      "render": 7639,
      "▁Scottish": 7640,
      "bottom": 7641,
      "▁believes": 7642,
      "rible": 7643,
      "▁surprise": 7644,
      "▁depth": 7645,
      "▁laid": 7646,
      "She": 7647,
      "▁assessment": 7648,
      "▁collaboration": 7649,
      "▁Minnesota": 7650,
      "▁prohib": 7651,
      "▁pregn": 7652,
      "▁Brian": 7653,
      "json": 7654,
      "▁constant": 7655,
      "Factory": 7656,
      "Block": 7657,
      "element": 7658,
      "▁elig": 7659,
      "enda": 7660,
      "▁dismiss": 7661,
      "▁Brand": 7662,
      "ederation": 7663,
      "▁Have": 7664,
      "verty": 7665,
      "▁lots": 7666,
      "▁drawn": 7667,
      "▁realized": 7668,
      "rait": 7669,
      "▁garden": 7670,
      "▁accommod": 7671,
      "▁Works": 7672,
      "itzer": 7673,
      "▁losing": 7674,
      "▁imagine": 7675,
      "project": 7676,
      "When": 7677,
      "▁newly": 7678,
      "▁assault": 7679,
      "▁destroyed": 7680,
      "▁Imm": 7681,
      "▁schedule": 7682,
      "PRO": 7683,
      "▁politicians": 7684,
      "▁exhibition": 7685,
      "▁pulled": 7686,
      "KE": 7687,
      "▁Connect": 7688,
      "ificate": 7689,
      "▁Avenue": 7690,
      "▁Os": 7691,
      "ogen": 7692,
      "src": 7693,
      "▁echo": 7694,
      "plete": 7695,
      "▁Event": 7696,
      "▁gent": 7697,
      "▁Hay": 7698,
      "▁worst": 7699,
      "▁afternoon": 7700,
      "▁behalf": 7701,
      "pol": 7702,
      "ashed": 7703,
      "▁electronic": 7704,
      "▁Finally": 7705,
      "Line": 7706,
      "Link": 7707,
      "▁WH": 7708,
      "▁Never": 7709,
      "________": 7710,
      "▁Agency": 7711,
      "▁optim": 7712,
      "▁Age": 7713,
      "▁Disney": 7714,
      "eries": 7715,
      "▁understood": 7716,
      "▁investors": 7717,
      "icious": 7718,
      "▁·": 7719,
      "orne": 7720,
      "▁accused": 7721,
      "▁poverty": 7722,
      "▁Ty": 7723,
      "aintiff": 7724,
      "▁sick": 7725,
      "▁happening": 7726,
      "ocated": 7727,
      "▁practical": 7728,
      "▁elev": 7729,
      "cerning": 7730,
      "▁Ref": 7731,
      "▁topic": 7732,
      "Default": 7733,
      "▁improved": 7734,
      "▁Senior": 7735,
      "▁Short": 7736,
      "▁Portug": 7737,
      "ogy": 7738,
      "isl": 7739,
      "▁distingu": 7740,
      "▁Ontario": 7741,
      "▁escape": 7742,
      "PP": 7743,
      "chema": 7744,
      "▁Brother": 7745,
      "mem": 7746,
      "▁rot": 7747,
      "missions": 7748,
      "▁yes": 7749,
      "▁fab": 7750,
      "▁Lewis": 7751,
      "ennis": 7752,
      "Hel": 7753,
      "void": 7754,
      "▁ped": 7755,
      "▁info": 7756,
      "▁Der": 7757,
      "▁settlement": 7758,
      "▁components": 7759,
      "▁Wars": 7760,
      "▁pas": 7761,
      "▁exceed": 7762,
      "▁Miller": 7763,
      "▁Put": 7764,
      "▁dans": 7765,
      "char": 7766,
      "ante": 7767,
      "Buffer": 7768,
      "▁Clinton": 7769,
      "nce": 7770,
      "ERT": 7771,
      "▁Gallery": 7772,
      "▁Know": 7773,
      "▁Official": 7774,
      "INE": 7775,
      "pson": 7776,
      "▁moments": 7777,
      "▁CA": 7778,
      "▁hur": 7779,
      "▁Transport": 7780,
      "▁dé": 7781,
      "▁fundamental": 7782,
      "▁taxes": 7783,
      "▁Perform": 7784,
      "▁Sem": 7785,
      "▁Dam": 7786,
      "▁Area": 7787,
      "▁publis": 7788,
      "▁contained": 7789,
      "▁capable": 7790,
      "▁effectively": 7791,
      "▁trib": 7792,
      "▁fifth": 7793,
      "▁killing": 7794,
      "▁lawyer": 7795,
      "▁coffee": 7796,
      "▁Syria": 7797,
      "write": 7798,
      "cs": 7799,
      "Do": 7800,
      "▁opposite": 7801,
      "incoln": 7802,
      "▁Pay": 7803,
      "▁consists": 7804,
      "▁vulner": 7805,
      "select": 7806,
      "vider": 7807,
      "aron": 7808,
      "▁Stock": 7809,
      "▁sevent": 7810,
      "▁Product": 7811,
      "status": 7812,
      "▁rose": 7813,
      "ogg": 7814,
      "▁assign": 7815,
      "▁Prom": 7816,
      "▁refused": 7817,
      "▁Arizona": 7818,
      "ptr": 7819,
      "Resource": 7820,
      "▁immediate": 7821,
      "▁rh": 7822,
      "▁stores": 7823,
      "▁talent": 7824,
      "▁tight": 7825,
      "▁ru": 7826,
      "▁Korean": 7827,
      "ando": 7828,
      "Cell": 7829,
      "urches": 7830,
      "▁containing": 7831,
      "▁anx": 7832,
      "orry": 7833,
      "▁Building": 7834,
      "▁nut": 7835,
      "▁Anton": 7836,
      "ureau": 7837,
      "▁exists": 7838,
      "▁MA": 7839,
      "▁faced": 7840,
      "▁strike": 7841,
      "server": 7842,
      "▁behavi": 7843,
      "ogether": 7844,
      "▁transaction": 7845,
      "▁Greg": 7846,
      "▁Crit": 7847,
      "▁founder": 7848,
      "▁Station": 7849,
      "▁protest": 7850,
      "▁languages": 7851,
      "▁Previous": 7852,
      "▁roof": 7853,
      "${": 7854,
      "▁agents": 7855,
      "▁boat": 7856,
      "language": 7857,
      "▁detect": 7858,
      "ilton": 7859,
      "▁roy": 7860,
      "▁illegal": 7861,
      "oured": 7862,
      "format": 7863,
      "otes": 7864,
      "▁egg": 7865,
      "▁branch": 7866,
      "▁Golden": 7867,
      "▁Control": 7868,
      "Start": 7869,
      "▁Marc": 7870,
      "▁philosophy": 7871,
      "▁scheduled": 7872,
      "▁Bad": 7873,
      "▁AS": 7874,
      "▁Prize": 7875,
      "True": 7876,
      "▁Video": 7877,
      "▁Six": 7878,
      "pool": 7879,
      "▁Mult": 7880,
      "bles": 7881,
      "▁Ali": 7882,
      "▁mal": 7883,
      "lean": 7884,
      "har": 7885,
      "▁Capital": 7886,
      "▁laugh": 7887,
      "▁involving": 7888,
      "egin": 7889,
      "▁Online": 7890,
      "▁alumni": 7891,
      "oking": 7892,
      "anth": 7893,
      "▁severe": 7894,
      "So": 7895,
      "▁Singapore": 7896,
      "▁Victoria": 7897,
      "ints": 7898,
      "Page": 7899,
      "olly": 7900,
      "▁Expl": 7901,
      "iest": 7902,
      "▁Date": 7903,
      "▁Ryan": 7904,
      "isa": 7905,
      "▁fulf": 7906,
      "igious": 7907,
      "▁Ball": 7908,
      "rip": 7909,
      "▁Pot": 7910,
      "▁featuring": 7911,
      "▁resistance": 7912,
      "▁somewhat": 7913,
      "▁Kat": 7914,
      "evin": 7915,
      "▁mob": 7916,
      "rl": 7917,
      "eping": 7918,
      "▁Case": 7919,
      "redit": 7920,
      "▁Digital": 7921,
      "▁performing": 7922,
      "aska": 7923,
      "▁decor": 7924,
      "▁invited": 7925,
      "▁intellectual": 7926,
      "ocus": 7927,
      "▁suffering": 7928,
      "vere": 7929,
      "▁vice": 7930,
      "▁assigned": 7931,
      "▁Vietnam": 7932,
      "▁Personal": 7933,
      "▁explan": 7934,
      "rell": 7935,
      "yo": 7936,
      "▁Notes": 7937,
      "acle": 7938,
      "▁reaction": 7939,
      "▁performances": 7940,
      "undle": 7941,
      "▁fees": 7942,
      "▁random": 7943,
      "▁Atlantic": 7944,
      "▁respectively": 7945,
      "▁papers": 7946,
      "▁administrative": 7947,
      "RC": 7948,
      "uma": 7949,
      "▁Find": 7950,
      "▁Marsh": 7951,
      "▁guest": 7952,
      "▁Belg": 7953,
      "▁linked": 7954,
      "find": 7955,
      "▁scheme": 7956,
      "▁Take": 7957,
      "▁jurisd": 7958,
      "%)": 7959,
      "▁Method": 7960,
      "idi": 7961,
      "){": 7962,
      "▁manufacturing": 7963,
      "▁Kansas": 7964,
      "▁confident": 7965,
      "=#": 7966,
      "▁professionals": 7967,
      "▁presidential": 7968,
      "▁purchased": 7969,
      "▁Tony": 7970,
      "▁plenty": 7971,
      "IB": 7972,
      "▁supports": 7973,
      "pha": 7974,
      "▁Staff": 7975,
      "igenous": 7976,
      "▁Leon": 7977,
      "▁Low": 7978,
      "▁usual": 7979,
      "▁encourage": 7980,
      "▁expensive": 7981,
      "omic": 7982,
      "▁offices": 7983,
      "▁innovation": 7984,
      "Style": 7985,
      "TA": 7986,
      "▁updated": 7987,
      "atalog": 7988,
      "▁pointed": 7989,
      "▁suddenly": 7990,
      "ribed": 7991,
      "▁pray": 7992,
      "ouri": 7993,
      "▁yards": 7994,
      "idget": 7995,
      "vo": 7996,
      "▁Ut": 7997,
      "▁consequences": 7998,
      "▁Trade": 7999,
      "Pre": 8000,
      "▁realize": 8001,
      "pa": 8002,
      "▁ending": 8003,
      "▁Turk": 8004,
      "▁Schol": 8005,
      "▁Ext": 8006,
      "▁talks": 8007,
      "iah": 8008,
      "▁Captain": 8009,
      "▁contributions": 8010,
      "ixed": 8011,
      "▁sample": 8012,
      "▁analy": 8013,
      "making": 8014,
      "▁rub": 8015,
      "ifts": 8016,
      "▁Copyright": 8017,
      "▁Sav": 8018,
      "▁joy": 8019,
      "owa": 8020,
      "door": 8021,
      "achelor": 8022,
      "▁chose": 8023,
      "▁divided": 8024,
      "▁Hotel": 8025,
      "IZ": 8026,
      "ACK": 8027,
      "ilty": 8028,
      "Co": 8029,
      "▁veget": 8030,
      "▁Custom": 8031,
      "othe": 8032,
      "▁tall": 8033,
      "inations": 8034,
      "reement": 8035,
      "▁medal": 8036,
      "uns": 8037,
      "ishment": 8038,
      "▁prominent": 8039,
      "▁button": 8040,
      "▁Arm": 8041,
      "▁visible": 8042,
      "ova": 8043,
      "!”": 8044,
      "quarters": 8045,
      "▁Maybe": 8046,
      "▁equival": 8047,
      "aya": 8048,
      "▁covers": 8049,
      "▁split": 8050,
      "▁dialog": 8051,
      "▁Syd": 8052,
      "▁extension": 8053,
      "scale": 8054,
      "▁confirm": 8055,
      "▁filter": 8056,
      "▁scenes": 8057,
      "nal": 8058,
      "ito": 8059,
      "Us": 8060,
      "▁baseball": 8061,
      "▁resc": 8062,
      "▁promise": 8063,
      "push": 8064,
      "lik": 8065,
      "▁gained": 8066,
      "▁evolution": 8067,
      "rary": 8068,
      "▁kinds": 8069,
      "▁properly": 8070,
      "▁alive": 8071,
      "rypt": 8072,
      "fol": 8073,
      "▁recovery": 8074,
      "img": 8075,
      "▁attempts": 8076,
      "agan": 8077,
      "▁picked": 8078,
      "▁watched": 8079,
      "▁Simon": 8080,
      "▁NAS": 8081,
      "▁Band": 8082,
      "pop": 8083,
      "found": 8084,
      "▁License": 8085,
      "▁combat": 8086,
      "▁reader": 8087,
      "▁fly": 8088,
      "Oh": 8089,
      "▁Roll": 8090,
      "▁landscape": 8091,
      "▁returning": 8092,
      "ocratic": 8093,
      "vision": 8094,
      "▁networks": 8095,
      "▁dinner": 8096,
      "▁Was": 8097,
      "▁Forest": 8098,
      "▁wedd": 8099,
      "▁exciting": 8100,
      "▁encounter": 8101,
      "▁Defense": 8102,
      "▁recognize": 8103,
      "▁Poland": 8104,
      "▁Liter": 8105,
      "▁Therefore": 8106,
      "▁Lincoln": 8107,
      "▁proposal": 8108,
      "▁{@": 8109,
      "news": 8110,
      "▁Prior": 8111,
      "▁~": 8112,
      "▁opposed": 8113,
      "orig": 8114,
      "▁Culture": 8115,
      "▁Matthew": 8116,
      "▁template": 8117,
      "▁Ak": 8118,
      "▁Map": 8119,
      "▁illness": 8120,
      "▁worry": 8121,
      "▁principle": 8122,
      "▁Ltd": 8123,
      "▁sentence": 8124,
      "▁cards": 8125,
      "▁steel": 8126,
      "▁Political": 8127,
      "▁swim": 8128,
      "▁encourag": 8129,
      "▁url": 8130,
      "▁employed": 8131,
      "▁wer": 8132,
      "▁comprehensive": 8133,
      "▁Hung": 8134,
      "una": 8135,
      "▁regularly": 8136,
      "bel": 8137,
      "▁awareness": 8138,
      "▁prompt": 8139,
      "▁Daily": 8140,
      "▁festival": 8141,
      "▁Ra": 8142,
      "rank": 8143,
      "▁phenomen": 8144,
      "▁distributed": 8145,
      "meta": 8146,
      "▁framework": 8147,
      "cers": 8148,
      "▁generated": 8149,
      "▁ON": 8150,
      "▁joining": 8151,
      "▁ride": 8152,
      "▁Imp": 8153,
      "▁nurs": 8154,
      "FI": 8155,
      "▁slowly": 8156,
      "▁conscious": 8157,
      "▁expanded": 8158,
      "▁Bol": 8159,
      "▁Bat": 8160,
      "png": 8161,
      "ulous": 8162,
      "One": 8163,
      "▁entreprene": 8164,
      "▁considering": 8165,
      "font": 8166,
      "▁trav": 8167,
      "▁Jordan": 8168,
      "▁paragraph": 8169,
      "▁subjects": 8170,
      "aza": 8171,
      "▁Cook": 8172,
      "aug": 8173,
      "▁Conc": 8174,
      "spe": 8175,
      "▁knowing": 8176,
      "step": 8177,
      "gov": 8178,
      "\"]": 8179,
      "Version": 8180,
      "consin": 8181,
      "▁HT": 8182,
      "▁Cab": 8183,
      "▁applicable": 8184,
      "▁continuing": 8185,
      "▁therapy": 8186,
      "▁graduated": 8187,
      "▁talked": 8188,
      "▁preced": 8189,
      "▁Market": 8190,
      "▁Tro": 8191,
      "▁File": 8192,
      "▁strategies": 8193,
      "▁operate": 8194,
      "▁Airport": 8195,
      "rac": 8196,
      "▁deleg": 8197,
      "▁crimes": 8198,
      "ión": 8199,
      "▁informed": 8200,
      "▁MS": 8201,
      "Arg": 8202,
      "▁representative": 8203,
      "▁resulted": 8204,
      "▁recommended": 8205,
      "▁merely": 8206,
      "▁legend": 8207,
      "vy": 8208,
      "▁Memorial": 8209,
      "▁hidden": 8210,
      "▁admitted": 8211,
      "▁bare": 8212,
      "▁diplom": 8213,
      "▁Full": 8214,
      "▁Houston": 8215,
      "▁videos": 8216,
      "▁concerning": 8217,
      "▁centuries": 8218,
      "▁Perhaps": 8219,
      "you": 8220,
      "oked": 8221,
      "▁carrying": 8222,
      "owntown": 8223,
      "▁Kir": 8224,
      "▁suspect": 8225,
      "▁necessarily": 8226,
      "▁regime": 8227,
      "sg": 8228,
      "▁excess": 8229,
      "▁province": 8230,
      "▁Ho": 8231,
      "mt": 8232,
      "▁rising": 8233,
      "▁sky": 8234,
      "rient": 8235,
      "▁participation": 8236,
      "▁CON": 8237,
      "▁Stone": 8238,
      "▁Duke": 8239,
      "angers": 8240,
      "▁writes": 8241,
      "▁Ast": 8242,
      "▁cycle": 8243,
      "▁Democrats": 8244,
      "▁installed": 8245,
      "▁trained": 8246,
      "Em": 8247,
      "▁Grant": 8248,
      "▁paying": 8249,
      "▁explains": 8250,
      "odd": 8251,
      "▁messages": 8252,
      "support": 8253,
      "▁thread": 8254,
      "▁```": 8255,
      "▁invent": 8256,
      "▁Hop": 8257,
      "EP": 8258,
      "▁Friend": 8259,
      "called": 8260,
      "▁Disc": 8261,
      "occer": 8262,
      "▁Moh": 8263,
      "▁je": 8264,
      "▁vert": 8265,
      "▁proof": 8266,
      "Child": 8267,
      "chestra": 8268,
      "UI": 8269,
      "sect": 8270,
      "▁entertainment": 8271,
      "CD": 8272,
      "etary": 8273,
      "▁Historic": 8274,
      "aze": 8275,
      "▁Kevin": 8276,
      "▁documentary": 8277,
      "▁Hind": 8278,
      "▁votes": 8279,
      "▁Cas": 8280,
      "ools": 8281,
      "she": 8282,
      "▁democracy": 8283,
      "endif": 8284,
      "▁Cre": 8285,
      "▁procedures": 8286,
      "UB": 8287,
      "▁heads": 8288,
      "▁Microsoft": 8289,
      "▁healthcare": 8290,
      "▁Jane": 8291,
      "RS": 8292,
      "aba": 8293,
      "writer": 8294,
      "isk": 8295,
      "▁scr": 8296,
      "%.": 8297,
      "ouch": 8298,
      "▁facilit": 8299,
      "Function": 8300,
      "▁settings": 8301,
      "▁sculpt": 8302,
      "▁((": 8303,
      "▁armed": 8304,
      "////////////////": 8305,
      "▁accordance": 8306,
      "▁gro": 8307,
      "organ": 8308,
      "FONT": 8309,
      "▁brown": 8310,
      "including": 8311,
      "▁Las": 8312,
      "▁myth": 8313,
      "▁Cru": 8314,
      "▁sustainable": 8315,
      "▁comfortable": 8316,
      "▁bag": 8317,
      "▁Third": 8318,
      "ascript": 8319,
      "▁Scient": 8320,
      "bra": 8321,
      "▁narrative": 8322,
      "grade": 8323,
      "▁remote": 8324,
      "iy": 8325,
      "▁entity": 8326,
      "▁apparently": 8327,
      "▁Attorney": 8328,
      "▁Season": 8329,
      "roke": 8330,
      "▁Afghanistan": 8331,
      "curities": 8332,
      "▁acknowled": 8333,
      "otten": 8334,
      "▁Cam": 8335,
      "▁ly": 8336,
      "eman": 8337,
      "▁prepare": 8338,
      "▁hat": 8339,
      "RL": 8340,
      "▁Comput": 8341,
      "▁proved": 8342,
      "▁consumers": 8343,
      "▁experiment": 8344,
      "asts": 8345,
      "common": 8346,
      "▁Ten": 8347,
      "▁Sche": 8348,
      "ictionary": 8349,
      "▁Nob": 8350,
      "▁provider": 8351,
      "▁engage": 8352,
      "▁Table": 8353,
      "▁Peace": 8354,
      "MM": 8355,
      "▁fol": 8356,
      "Ext": 8357,
      "▁percentage": 8358,
      "▁operated": 8359,
      "▁Harvard": 8360,
      "▁strange": 8361,
      "dates": 8362,
      "Yes": 8363,
      "▁uncertain": 8364,
      "▁controlled": 8365,
      "▁Islands": 8366,
      "rase": 8367,
      "▁lift": 8368,
      "▁universities": 8369,
      "Number": 8370,
      "▁synt": 8371,
      "number": 8372,
      "▁Cooper": 8373,
      "ori": 8374,
      "Equals": 8375,
      "▁magn": 8376,
      "▁consistent": 8377,
      "eld": 8378,
      "▁Sarah": 8379,
      "▁Jacob": 8380,
      "▁struck": 8381,
      "▁directors": 8382,
      "▁Wisconsin": 8383,
      "▁Does": 8384,
      "imental": 8385,
      "▁Patrick": 8386,
      "▁True": 8387,
      "yard": 8388,
      "fall": 8389,
      "▁Argent": 8390,
      "▁Supp": 8391,
      "▁(“": 8392,
      "front": 8393,
      "▁signal": 8394,
      "esterday": 8395,
      "▁>>": 8396,
      "▁profit": 8397,
      "▁Sever": 8398,
      "▁ethnic": 8399,
      "▁introduction": 8400,
      "present": 8401,
      "▁Sydney": 8402,
      "▁argued": 8403,
      "▁ax": 8404,
      "▁Whether": 8405,
      "▁subsequent": 8406,
      "ingham": 8407,
      "▁FOR": 8408,
      "▁findings": 8409,
      "▁ok": 8410,
      "▁spaces": 8411,
      "▁Emer": 8412,
      "▁NFL": 8413,
      "▁symptoms": 8414,
      "▁titles": 8415,
      "▁BC": 8416,
      "▁Arthur": 8417,
      "First": 8418,
      "▁EN": 8419,
      "▁Has": 8420,
      "▁diversity": 8421,
      "▁till": 8422,
      "vas": 8423,
      "▁vital": 8424,
      "▁deeply": 8425,
      "▁brothers": 8426,
      "show": 8427,
      "▁maintenance": 8428,
      "▁wire": 8429,
      "display": 8430,
      "▁Pict": 8431,
      "▁Ross": 8432,
      "bled": 8433,
      "tw": 8434,
      "pton": 8435,
      "▁secondary": 8436,
      "▁representation": 8437,
      "▁Guide": 8438,
      "▁extreme": 8439,
      "▁domain": 8440,
      "people": 8441,
      "regon": 8442,
      "▁describes": 8443,
      "isition": 8444,
      "▁Lie": 8445,
      "▁tack": 8446,
      "▁consideration": 8447,
      "emeter": 8448,
      "▁Nether": 8449,
      "izz": 8450,
      "▁grass": 8451,
      "▁Doctor": 8452,
      "(&": 8453,
      "▁anticip": 8454,
      "ricts": 8455,
      "annot": 8456,
      "▁valuable": 8457,
      "%,": 8458,
      "elve": 8459,
      "▁bass": 8460,
      "▁hadn": 8461,
      "▁seriously": 8462,
      "uality": 8463,
      "▁Students": 8464,
      "▁representing": 8465,
      "essee": 8466,
      "▁AT": 8467,
      "▁Final": 8468,
      "▁gay": 8469,
      "▁innovative": 8470,
      "▁clar": 8471,
      "pay": 8472,
      "Create": 8473,
      "▁Norm": 8474,
      "▁submitted": 8475,
      "Command": 8476,
      "VD": 8477,
      "▁admin": 8478,
      "▁pip": 8479,
      "▁virus": 8480,
      "▁Gro": 8481,
      "▁listening": 8482,
      "▁captured": 8483,
      "▁urg": 8484,
      "▁tough": 8485,
      "▁Sant": 8486,
      "▁vary": 8487,
      "▁evil": 8488,
      "ét": 8489,
      "▁contributed": 8490,
      "▁Na": 8491,
      "▁myst": 8492,
      "▁Tai": 8493,
      "▁versions": 8494,
      "omet": 8495,
      "▁politician": 8496,
      "rations": 8497,
      "raid": 8498,
      "▁Mach": 8499,
      "▁adj": 8500,
      "▁stake": 8501,
      "▁convent": 8502,
      "named": 8503,
      "▁consent": 8504,
      "ographer": 8505,
      "▁officially": 8506,
      "▁PR": 8507,
      "▁commonly": 8508,
      "▁unus": 8509,
      "▁topics": 8510,
      "▁bott": 8511,
      "▁dates": 8512,
      "▁qualified": 8513,
      "▁contribution": 8514,
      "ttp": 8515,
      "olid": 8516,
      "esc": 8517,
      "▁conclusion": 8518,
      "description": 8519,
      "▁Dead": 8520,
      "}}": 8521,
      "pi": 8522,
      "Pr": 8523,
      "▁franch": 8524,
      "iley": 8525,
      "urers": 8526,
      "det": 8527,
      "▁wearing": 8528,
      "rav": 8529,
      "▁yield": 8530,
      "▁disappoint": 8531,
      "▁musicians": 8532,
      "▁communications": 8533,
      "▁float": 8534,
      "cow": 8535,
      "▁parliament": 8536,
      "▁childhood": 8537,
      "iser": 8538,
      "earing": 8539,
      "▁Contin": 8540,
      "tle": 8541,
      "▁advertising": 8542,
      "holder": 8543,
      "▁Judge": 8544,
      "inst": 8545,
      "▁permission": 8546,
      ".;": 8547,
      "▁fruit": 8548,
      "arry": 8549,
      "▁compris": 8550,
      "aria": 8551,
      "Web": 8552,
      "▁Maryland": 8553,
      "▁settled": 8554,
      "acher": 8555,
      "▁faces": 8556,
      "oded": 8557,
      "▁zone": 8558,
      "istent": 8559,
      "abet": 8560,
      "asant": 8561,
      "▁chap": 8562,
      "ulating": 8563,
      "▁Han": 8564,
      "▁Magazine": 8565,
      "▁simpl": 8566,
      "bec": 8567,
      "▁governor": 8568,
      "▁initiative": 8569,
      "▁concluded": 8570,
      "process": 8571,
      "boy": 8572,
      "Spec": 8573,
      "▁Dom": 8574,
      "Net": 8575,
      "bass": 8576,
      "▁Indiana": 8577,
      "ader": 8578,
      "▁IV": 8579,
      "▁typical": 8580,
      "▁McG": 8581,
      "▁Colon": 8582,
      "▁privile": 8583,
      "▁bigger": 8584,
      "roit": 8585,
      "▁Change": 8586,
      "▁Windows": 8587,
      "▁voters": 8588,
      "obby": 8589,
      "▁soil": 8590,
      "▁clubs": 8591,
      "▁doors": 8592,
      "▁Gil": 8593,
      "▁inner": 8594,
      "▁holiday": 8595,
      "▁composed": 8596,
      "olitan": 8597,
      "▁privacy": 8598,
      "iami": 8599,
      "▁reputation": 8600,
      "orses": 8601,
      "▁bon": 8602,
      "▁missed": 8603,
      "alo": 8604,
      "▁posts": 8605,
      "▁Jay": 8606,
      "▁grounds": 8607,
      "▁dealing": 8608,
      "▁prime": 8609,
      "aire": 8610,
      "▁drawing": 8611,
      "Format": 8612,
      "▁Hit": 8613,
      "▁ele": 8614,
      "riate": 8615,
      "▁pilot": 8616,
      "▁eastern": 8617,
      "▁liked": 8618,
      "Last": 8619,
      "▁adm": 8620,
      "▁tail": 8621,
      "itionally": 8622,
      "uan": 8623,
      "▁procedure": 8624,
      "▁wave": 8625,
      "Return": 8626,
      "oven": 8627,
      "wa": 8628,
      "Controller": 8629,
      "attr": 8630,
      "aws": 8631,
      "▁Clin": 8632,
      "▁inhab": 8633,
      "▁yellow": 8634,
      "layout": 8635,
      "Listener": 8636,
      "sett": 8637,
      "▁prev": 8638,
      "▁transportation": 8639,
      "▁define": 8640,
      "▁limits": 8641,
      "▁Mountain": 8642,
      "BU": 8643,
      "▁defeated": 8644,
      "claimed": 8645,
      "▁Image": 8646,
      "▁Sab": 8647,
      "Rep": 8648,
      "▁Gre": 8649,
      "▁contest": 8650,
      "asty": 8651,
      "▁finance": 8652,
      "▁surgery": 8653,
      "▁episodes": 8654,
      "ère": 8655,
      "adesh": 8656,
      "card": 8657,
      "iamond": 8658,
      "aux": 8659,
      "▁Chairman": 8660,
      "▁plane": 8661,
      "▁surprised": 8662,
      "▁visiting": 8663,
      "▁formation": 8664,
      "DT": 8665,
      "mans": 8666,
      "▁proport": 8667,
      "▁Alb": 8668,
      "main": 8669,
      "▁Gh": 8670,
      "▁cinem": 8671,
      "▁denied": 8672,
      "▁Corps": 8673,
      "▁occas": 8674,
      "lections": 8675,
      "▁anywhere": 8676,
      "▁ceremony": 8677,
      "gorith": 8678,
      "▁Convention": 8679,
      "▁Anderson": 8680,
      "▁Dor": 8681,
      "obj": 8682,
      "▁Oregon": 8683,
      "INT": 8684,
      "▁ju": 8685,
      "▁Anthony": 8686,
      "ferred": 8687,
      "▁acid": 8688,
      "▁tort": 8689,
      "▁busy": 8690,
      "cycl": 8691,
      "▁Balt": 8692,
      "pir": 8693,
      "world": 8694,
      "▁alcohol": 8695,
      "nie": 8696,
      "encing": 8697,
      "udes": 8698,
      "package": 8699,
      "Can": 8700,
      "cul": 8701,
      "▁contribute": 8702,
      "▁anniversary": 8703,
      "response": 8704,
      "high": 8705,
      "▁guilty": 8706,
      "▁sum": 8707,
      "▁tables": 8708,
      "▁Lin": 8709,
      "▁windows": 8710,
      "▁driven": 8711,
      "ni": 8712,
      "enter": 8713,
      "iscal": 8714,
      "▁aside": 8715,
      "onder": 8716,
      "▁intention": 8717,
      "inking": 8718,
      "riers": 8719,
      "▁Ec": 8720,
      "▁hate": 8721,
      "▁establishment": 8722,
      "abama": 8723,
      "▁beach": 8724,
      "▁salt": 8725,
      "▁payments": 8726,
      "▁discl": 8727,
      "▁seats": 8728,
      "▁sections": 8729,
      "▁airport": 8730,
      "angel": 8731,
      "ologists": 8732,
      "▁flo": 8733,
      "▁Pitt": 8734,
      "▁transferred": 8735,
      "VER": 8736,
      "yes": 8737,
      "▁Tok": 8738,
      "▁PC": 8739,
      "▁neck": 8740,
      "▁Meanwhile": 8741,
      "lights": 8742,
      "Check": 8743,
      "▁retirement": 8744,
      "▁zero": 8745,
      "uther": 8746,
      "▁Allen": 8747,
      "peror": 8748,
      "filter": 8749,
      "depend": 8750,
      "▁Netherlands": 8751,
      "makers": 8752,
      "annels": 8753,
      "▁obviously": 8754,
      "▁Having": 8755,
      "▁Tennessee": 8756,
      "OK": 8757,
      "▁Heart": 8758,
      "▁Pope": 8759,
      "▁Fall": 8760,
      "▁Mother": 8761,
      "▁increases": 8762,
      "▁boost": 8763,
      "▁voting": 8764,
      "irtual": 8765,
      "styles": 8766,
      "iable": 8767,
      "▁kil": 8768,
      "▁Career": 8769,
      "▁fought": 8770,
      "▁trail": 8771,
      "▁Missouri": 8772,
      "▁champion": 8773,
      "▁diseases": 8774,
      "▁competitive": 8775,
      "▁hell": 8776,
      "▁audio": 8777,
      "▁grade": 8778,
      "▁hopes": 8779,
      "▁immigration": 8780,
      "ji": 8781,
      "▁heavily": 8782,
      "uv": 8783,
      "ourse": 8784,
      "iece": 8785,
      "▁affairs": 8786,
      "▁Collection": 8787,
      "▁capture": 8788,
      "▁enthus": 8789,
      "container": 8790,
      "scription": 8791,
      "aly": 8792,
      "Filter": 8793,
      "▁hydro": 8794,
      "▁exclud": 8795,
      "▁defendant": 8796,
      "▁Labour": 8797,
      "sor": 8798,
      "▁Films": 8799,
      "▁Account": 8800,
      "▁trading": 8801,
      "onia": 8802,
      "▁injuries": 8803,
      "params": 8804,
      "▁Environmental": 8805,
      "WE": 8806,
      "▁copies": 8807,
      "▁fram": 8808,
      "▁independence": 8809,
      "▁layer": 8810,
      "▁feelings": 8811,
      "▁sees": 8812,
      "▁Which": 8813,
      "▁compensation": 8814,
      "non": 8815,
      "Tube": 8816,
      "▁injured": 8817,
      "▁Creek": 8818,
      "▁Mexican": 8819,
      "▁delight": 8820,
      "▁atmosphere": 8821,
      "di": 8822,
      "▁outstanding": 8823,
      "▁generate": 8824,
      "▁Const": 8825,
      "▁reduction": 8826,
      "▁affili": 8827,
      "▁thirty": 8828,
      "▁saved": 8829,
      "▁membership": 8830,
      ":</": 8831,
      "▁Christians": 8832,
      "▁literary": 8833,
      "▁producing": 8834,
      "▁doctors": 8835,
      "javascript": 8836,
      "vol": 8837,
      "inals": 8838,
      "▁factory": 8839,
      "▁constructed": 8840,
      "▁carefully": 8841,
      "star": 8842,
      "URL": 8843,
      "BN": 8844,
      "▁movements": 8845,
      "▁substantial": 8846,
      "▁offset": 8847,
      "▁mail": 8848,
      "▁Ess": 8849,
      "▁Bridge": 8850,
      "▁API": 8851,
      "▁surprising": 8852,
      "iate": 8853,
      "▁tag": 8854,
      "▁weren": 8855,
      "▁Saudi": 8856,
      "▁attached": 8857,
      "▁Roy": 8858,
      "isher": 8859,
      "public": 8860,
      "iot": 8861,
      "Button": 8862,
      "▁duties": 8863,
      "▁celeb": 8864,
      "▁Site": 8865,
      "▁si": 8866,
      "▁friendly": 8867,
      "▁Kennedy": 8868,
      "▁Authority": 8869,
      "▁guests": 8870,
      "ques": 8871,
      "anes": 8872,
      "▁Square": 8873,
      "▁una": 8874,
      "Valid": 8875,
      "▁stim": 8876,
      "▁legit": 8877,
      "▁Diego": 8878,
      "▁explo": 8879,
      "▁hosted": 8880,
      "▁Bureau": 8881,
      "▁Front": 8882,
      "▁ruling": 8883,
      "▁Dick": 8884,
      "▁hurt": 8885,
      "FO": 8886,
      "ighth": 8887,
      "▁da": 8888,
      "▁programming": 8889,
      "▁confront": 8890,
      "▁Championships": 8891,
      "akh": 8892,
      "▁react": 8893,
      "▁FI": 8894,
      "Det": 8895,
      "▁von": 8896,
      "▁uniform": 8897,
      "▁expertise": 8898,
      "▁apartment": 8899,
      "▁Bry": 8900,
      "▁neuro": 8901,
      "▁Manager": 8902,
      "▁violent": 8903,
      "▁tor": 8904,
      "▁situations": 8905,
      "▁stead": 8906,
      "▁maintained": 8907,
      "pub": 8908,
      "▁occurs": 8909,
      "scope": 8910,
      "▁exposure": 8911,
      "▁Chem": 8912,
      "▁dict": 8913,
      "acks": 8914,
      "erto": 8915,
      "elfare": 8916,
      "angle": 8917,
      "▁totally": 8918,
      "razy": 8919,
      "▁Howard": 8920,
      "▁appointment": 8921,
      "▁statistics": 8922,
      "▁enhance": 8923,
      "▁Published": 8924,
      "▁SH": 8925,
      "hav": 8926,
      "▁fraud": 8927,
      "▁drivers": 8928,
      "rooms": 8929,
      "▁Iowa": 8930,
      "▁cler": 8931,
      "▁Harris": 8932,
      "▁amounts": 8933,
      "▁waters": 8934,
      "▁Miami": 8935,
      "▁cha": 8936,
      "▁Ocean": 8937,
      "▁colleagues": 8938,
      "▁Hart": 8939,
      "▁Alabama": 8940,
      "Well": 8941,
      "uer": 8942,
      "▁relating": 8943,
      "▁strongly": 8944,
      "▁Editor": 8945,
      "namespace": 8946,
      "menu": 8947,
      "▁withdraw": 8948,
      "▁shell": 8949,
      "▁depending": 8950,
      "▁Pier": 8951,
      "OST": 8952,
      "import": 8953,
      "away": 8954,
      "▁surve": 8955,
      "▁Anne": 8956,
      "▁subsequently": 8957,
      "▁Spirit": 8958,
      "▁exposed": 8959,
      "▁CLASS": 8960,
      "▁warning": 8961,
      "▁parameters": 8962,
      "▁railway": 8963,
      "eland": 8964,
      "▁wedding": 8965,
      "▁authent": 8966,
      "efined": 8967,
      "▁causing": 8968,
      "elson": 8969,
      "▁absolute": 8970,
      "▁colour": 8971,
      "▁Soft": 8972,
      "▁towns": 8973,
      "▁inher": 8974,
      "ikip": 8975,
      "▁smooth": 8976,
      "ibl": 8977,
      "Rem": 8978,
      "▁patterns": 8979,
      "▁organis": 8980,
      "▁breath": 8981,
      "▁glad": 8982,
      "▁Future": 8983,
      "▁Exp": 8984,
      "hol": 8985,
      "pc": 8986,
      "▁Move": 8987,
      "▁Pract": 8988,
      "▁Maria": 8989,
      "▁Ever": 8990,
      "ospitals": 8991,
      "father": 8992,
      "antry": 8993,
      "white": 8994,
      "▁equivalent": 8995,
      "▁journalist": 8996,
      "emed": 8997,
      "watch": 8998,
      "▁decline": 8999,
      "▁SP": 9000,
      "▁voted": 9001,
      "▁providers": 9002,
      "update": 9003,
      "Box": 9004,
      "access": 9005,
      "▁potentially": 9006,
      "▁Sn": 9007,
      "inth": 9008,
      "▁insert": 9009,
      "▁Dave": 9010,
      "▁guidance": 9011,
      "▁Advis": 9012,
      "▁Indones": 9013,
      "chers": 9014,
      "▁Unf": 9015,
      "▁Model": 9016,
      "▁Quest": 9017,
      "▁[]": 9018,
      "▁ordinary": 9019,
      "▁noticed": 9020,
      "▁Five": 9021,
      "math": 9022,
      "ITY": 9023,
      "▁callback": 9024,
      "▁constantly": 9025,
      "▁theatre": 9026,
      "▁connections": 9027,
      "▁poly": 9028,
      "▁indicated": 9029,
      "▁Born": 9030,
      "▁taste": 9031,
      "▁poetry": 9032,
      "▁Natural": 9033,
      "▁discovery": 9034,
      "▁Using": 9035,
      "▁footballers": 9036,
      "ictions": 9037,
      "Ab": 9038,
      "▁sacr": 9039,
      "▁copyright": 9040,
      "rat": 9041,
      "').": 9042,
      "▁defeat": 9043,
      "▁Raj": 9044,
      "▁fairly": 9045,
      "SH": 9046,
      "▁sequence": 9047,
      "▁accessible": 9048,
      "▁summary": 9049,
      "▁petition": 9050,
      "▁Politics": 9051,
      "▁spr": 9052,
      "▁attempted": 9053,
      "▁bread": 9054,
      "▁coron": 9055,
      "▁Winter": 9056,
      "▁liberal": 9057,
      "▁brill": 9058,
      "ikipedia": 9059,
      "oca": 9060,
      "▁pharm": 9061,
      "bourne": 9062,
      "▁Vi": 9063,
      "▁temporary": 9064,
      "▁gentle": 9065,
      "▁protein": 9066,
      "▁Number": 9067,
      "▁plate": 9068,
      "▁cooperation": 9069,
      "inch": 9070,
      "▁compliance": 9071,
      "esome": 9072,
      "allel": 9073,
      "▁Box": 9074,
      "▁Kelly": 9075,
      "Length": 9076,
      "▁args": 9077,
      "Aut": 9078,
      "▁Moscow": 9079,
      "▁Small": 9080,
      "▁registration": 9081,
      "▁Lib": 9082,
      "▁industries": 9083,
      "▁priority": 9084,
      "appy": 9085,
      "▁Greece": 9086,
      "▁smile": 9087,
      "▁Mit": 9088,
      "▁Dream": 9089,
      "▁racial": 9090,
      "▁meat": 9091,
      "ERR": 9092,
      "ami": 9093,
      "▁birds": 9094,
      "▁FC": 9095,
      "si": 9096,
      "▁ty": 9097,
      "▁Az": 9098,
      "▁Hur": 9099,
      "▁absence": 9100,
      "▁wra": 9101,
      "emetery": 9102,
      "kit": 9103,
      "ells": 9104,
      "▁Sweden": 9105,
      "low": 9106,
      "▁Tan": 9107,
      "▁Bishop": 9108,
      "▁Dark": 9109,
      "▁CN": 9110,
      "▁trigger": 9111,
      "▁afraid": 9112,
      "▁ownership": 9113,
      "UP": 9114,
      "▁Agreement": 9115,
      "static": 9116,
      "▁singing": 9117,
      "ilation": 9118,
      "ugby": 9119,
      "▁hits": 9120,
      "▁Native": 9121,
      "▁Study": 9122,
      "ippi": 9123,
      "inction": 9124,
      "background": 9125,
      "▁Lyn": 9126,
      "▁radical": 9127,
      "▁Regional": 9128,
      "▁eligible": 9129,
      "folio": 9130,
      "▁indicate": 9131,
      "mad": 9132,
      "▁vocals": 9133,
      "dest": 9134,
      "Cur": 9135,
      "break": 9136,
      "second": 9137,
      "▁relax": 9138,
      "▁Entertain": 9139,
      "Back": 9140,
      "▁electricity": 9141,
      "▁squad": 9142,
      "▁impressive": 9143,
      "▁faster": 9144,
      "▁Mississ": 9145,
      "iety": 9146,
      "▁query": 9147,
      "▁Oak": 9148,
      "DF": 9149,
      "▁reaching": 9150,
      "▁Former": 9151,
      "▁pushed": 9152,
      "utenant": 9153,
      "▁YouTube": 9154,
      "▁jun": 9155,
      "▁sugar": 9156,
      "▁moves": 9157,
      "tag": 9158,
      "▁engagement": 9159,
      "▁Click": 9160,
      "▁explos": 9161,
      "▁Protection": 9162,
      "eenth": 9163,
      "▁presentation": 9164,
      "cut": 9165,
      "▁jury": 9166,
      "icing": 9167,
      "CP": 9168,
      "▁challenging": 9169,
      "▁DNA": 9170,
      "DB": 9171,
      "▁Pack": 9172,
      "▁Nich": 9173,
      "▁Hal": 9174,
      "▁Without": 9175,
      "▁Command": 9176,
      "▁repair": 9177,
      "▁cos": 9178,
      "chant": 9179,
      "anim": 9180,
      "án": 9181,
      "afe": 9182,
      "▁Gab": 9183,
      "Bundle": 9184,
      "API": 9185,
      "▁truck": 9186,
      "▁blind": 9187,
      "▁Gord": 9188,
      "craft": 9189,
      "conf": 9190,
      "van": 9191,
      "icken": 9192,
      "owing": 9193,
      "▁arbit": 9194,
      "▁Text": 9195,
      "onna": 9196,
      "output": 9197,
      "whel": 9198,
      "▁vir": 9199,
      "▁comparison": 9200,
      "▁emissions": 9201,
      "drop": 9202,
      "▁blocks": 9203,
      "rating": 9204,
      "▁rig": 9205,
      "▁wins": 9206,
      "Men": 9207,
      "▁LA": 9208,
      "▁Josh": 9209,
      "▁wheel": 9210,
      "direct": 9211,
      "aved": 9212,
      "▁Several": 9213,
      "ordinary": 9214,
      "Mode": 9215,
      "aga": 9216,
      "▁choices": 9217,
      "▁operator": 9218,
      "▁piano": 9219,
      "▁Dall": 9220,
      "imary": 9221,
      "avirus": 9222,
      "▁Hawai": 9223,
      "▁falling": 9224,
      "▁Clark": 9225,
      "▁accurate": 9226,
      "remove": 9227,
      "▁Systems": 9228,
      "▁obj": 9229,
      "fs": 9230,
      "success": 9231,
      "▁raw": 9232,
      "▁Ban": 9233,
      "▁Manchester": 9234,
      "▁collective": 9235,
      "▁Architect": 9236,
      "▁novels": 9237,
      "▁rapidly": 9238,
      "gressive": 9239,
      "rett": 9240,
      "▁categories": 9241,
      "▁requests": 9242,
      "▁Create": 9243,
      "EXT": 9244,
      "fire": 9245,
      "▁trem": 9246,
      "local": 9247,
      "▁Years": 9248,
      "▁Television": 9249,
      "gage": 9250,
      "▁covering": 9251,
      "Label": 9252,
      "unit": 9253,
      "▁regulation": 9254,
      "idency": 9255,
      "▁Relations": 9256,
      "▁requested": 9257,
      "▁overse": 9258,
      "▁centers": 9259,
[...]
